#include "magic_wand_model_data.h"


// We need to keep the data array aligned on some architectures.

#ifdef __has_attribute

#define HAVE_ATTRIBUTE(x) __has_attribute(x)

#else

#define HAVE_ATTRIBUTE(x) 0

#endif

#if HAVE_ATTRIBUTE(aligned) || (defined(__GNUC__) && !defined(__clang__))

#define DATA_ALIGN_ATTRIBUTE __attribute__((aligned(4)))

#else

#define DATA_ALIGN_ATTRIBUTE

#endif


const unsigned char g_magic_wand_model_data[] DATA_ALIGN_ATTRIBUTE = {
0x08, 0x00, 0x00, 0x00, 0x54, 0x46, 0x4c, 0x33, 0x62, 0xff, 0xff, 0xff,
  0x03, 0x00, 0x00, 0x00, 0x10, 0x00, 0x00, 0x00, 0x24, 0x00, 0x00, 0x00,
  0x78, 0x00, 0x00, 0x00, 0x24, 0x00, 0x00, 0x00, 0x05, 0x00, 0x00, 0x00,
  0x78, 0x05, 0x00, 0x00, 0xb0, 0x04, 0x00, 0x00, 0xe0, 0x02, 0x00, 0x00,
  0x60, 0x02, 0x00, 0x00, 0x54, 0x01, 0x00, 0x00, 0x01, 0x00, 0x00, 0x00,
  0x78, 0x00, 0x00, 0x00, 0x13, 0x00, 0x00, 0x00, 0xd4, 0x2f, 0x00, 0x00,
  0xd0, 0x2f, 0x00, 0x00, 0xdc, 0x2e, 0x00, 0x00, 0x68, 0x2e, 0x00, 0x00,
  0xfc, 0x2d, 0x00, 0x00, 0xac, 0x11, 0x00, 0x00, 0x98, 0x10, 0x00, 0x00,
  0xbc, 0x0e, 0x00, 0x00, 0x60, 0x06, 0x00, 0x00, 0xfc, 0x05, 0x00, 0x00,
  0x78, 0x05, 0x00, 0x00, 0xa8, 0x2f, 0x00, 0x00, 0xa4, 0x2f, 0x00, 0x00,
  0xa0, 0x2f, 0x00, 0x00, 0x9c, 0x2f, 0x00, 0x00, 0x98, 0x2f, 0x00, 0x00,
  0x94, 0x2f, 0x00, 0x00, 0x90, 0x2f, 0x00, 0x00, 0x8c, 0x2f, 0x00, 0x00,
  0x0f, 0x00, 0x00, 0x00, 0x4d, 0x4c, 0x49, 0x52, 0x20, 0x43, 0x6f, 0x6e,
  0x76, 0x65, 0x72, 0x74, 0x65, 0x64, 0x2e, 0x00, 0x00, 0x00, 0x0e, 0x00,
  0x18, 0x00, 0x04, 0x00, 0x08, 0x00, 0x0c, 0x00, 0x10, 0x00, 0x14, 0x00,
  0x0e, 0x00, 0x00, 0x00, 0x14, 0x00, 0x00, 0x00, 0x5c, 0x00, 0x00, 0x00,
  0x60, 0x00, 0x00, 0x00, 0x64, 0x00, 0x00, 0x00, 0x84, 0x00, 0x00, 0x00,
  0x12, 0x00, 0x00, 0x00, 0x04, 0x2f, 0x00, 0x00, 0xa0, 0x2e, 0x00, 0x00,
  0xf8, 0x2d, 0x00, 0x00, 0x98, 0x2d, 0x00, 0x00, 0x30, 0x2d, 0x00, 0x00,
  0xdc, 0x10, 0x00, 0x00, 0xc0, 0x0f, 0x00, 0x00, 0xe4, 0x0d, 0x00, 0x00,
  0xa0, 0x05, 0x00, 0x00, 0x3c, 0x05, 0x00, 0x00, 0xb0, 0x04, 0x00, 0x00,
  0xe8, 0x03, 0x00, 0x00, 0x38, 0x03, 0x00, 0x00, 0xa4, 0x02, 0x00, 0x00,
  0x10, 0x02, 0x00, 0x00, 0x90, 0x01, 0x00, 0x00, 0xfc, 0x00, 0x00, 0x00,
  0x80, 0x00, 0x00, 0x00, 0x01, 0x00, 0x00, 0x00, 0x00, 0x00, 0x00, 0x00,
  0x01, 0x00, 0x00, 0x00, 0x11, 0x00, 0x00, 0x00, 0x08, 0x00, 0x00, 0x00,
  0x1c, 0x04, 0x00, 0x00, 0x58, 0x03, 0x00, 0x00, 0xc8, 0x02, 0x00, 0x00,
  0x24, 0x02, 0x00, 0x00, 0xac, 0x01, 0x00, 0x00, 0x10, 0x01, 0x00, 0x00,
  0x94, 0x00, 0x00, 0x00, 0x10, 0x00, 0x00, 0x00, 0x04, 0x00, 0x00, 0x00,
  0x6d, 0x61, 0x69, 0x6e, 0x00, 0x00, 0x00, 0x00, 0x8e, 0xff, 0xff, 0xff,
  0x00, 0x00, 0x00, 0x09, 0x04, 0x00, 0x00, 0x00, 0x1c, 0x00, 0x00, 0x00,
  0x10, 0x00, 0x00, 0x00, 0x04, 0x00, 0x00, 0x00, 0x4e, 0xd2, 0xff, 0xff,
  0x00, 0x00, 0x80, 0x3f, 0x01, 0x00, 0x00, 0x00, 0x11, 0x00, 0x00, 0x00,
  0x01, 0x00, 0x00, 0x00, 0x10, 0x00, 0x00, 0x00, 0xf6, 0xfb, 0xff, 0xff,
  0x00, 0x00, 0x00, 0x19, 0x01, 0x00, 0x00, 0x00, 0xce, 0xd1, 0xff, 0xff,
  0x10, 0x00, 0x00, 0x00, 0x12, 0x00, 0x00, 0x00, 0x14, 0x00, 0x00, 0x00,
  0x20, 0x00, 0x00, 0x00, 0x02, 0x00, 0x00, 0x00, 0x01, 0x00, 0x00, 0x00,
  0x03, 0x00, 0x00, 0x00, 0x08, 0x00, 0x00, 0x00, 0x49, 0x64, 0x65, 0x6e,
  0x74, 0x69, 0x74, 0x79, 0x00, 0x00, 0x00, 0x00, 0x08, 0xd2, 0xff, 0xff,
  0x00, 0x00, 0x0e, 0x00, 0x18, 0x00, 0x08, 0x00, 0x0c, 0x00, 0x10, 0x00,
  0x07, 0x00, 0x14, 0x00, 0x0e, 0x00, 0x00, 0x00, 0x00, 0x00, 0x00, 0x08,
  0x03, 0x00, 0x00, 0x00, 0x18, 0x00, 0x00, 0x00, 0x0c, 0x00, 0x00, 0x00,
  0x04, 0x00, 0x00, 0x00, 0xdc, 0xd1, 0xff, 0xff, 0x01, 0x00, 0x00, 0x00,
  0x10, 0x00, 0x00, 0x00, 0x03, 0x00, 0x00, 0x00, 0x0f, 0x00, 0x00, 0x00,
  0x05, 0x00, 0x00, 0x00, 0x02, 0x00, 0x00, 0x00, 0x46, 0xd2, 0xff, 0xff,
  0x10, 0x00, 0x00, 0x00, 0x11, 0x00, 0x00, 0x00, 0x14, 0x00, 0x00, 0x00,
  0x30, 0x00, 0x00, 0x00, 0x02, 0x00, 0x00, 0x00, 0x01, 0x00, 0x00, 0x00,
  0x03, 0x00, 0x00, 0x00, 0x1a, 0x00, 0x00, 0x00, 0x73, 0x65, 0x71, 0x75,
  0x65, 0x6e, 0x74, 0x69, 0x61, 0x6c, 0x2f, 0x64, 0x65, 0x6e, 0x73, 0x65,
  0x5f, 0x31, 0x2f, 0x42, 0x69, 0x61, 0x73, 0x41, 0x64, 0x64, 0x00, 0x00,
  0x38, 0xd2, 0xff, 0xff, 0xd6, 0xfd, 0xff, 0xff, 0x00, 0x00, 0x00, 0x08,
  0x03, 0x00, 0x00, 0x00, 0x24, 0x00, 0x00, 0x00, 0x18, 0x00, 0x00, 0x00,
  0x0c, 0x00, 0x00, 0x00, 0x00, 0x00, 0x06, 0x00, 0x08, 0x00, 0x07, 0x00,
  0x06, 0x00, 0x00, 0x00, 0x00, 0x00, 0x00, 0x01, 0x01, 0x00, 0x00, 0x00,
  0x0f, 0x00, 0x00, 0x00, 0x03, 0x00, 0x00, 0x00, 0x0e, 0x00, 0x00, 0x00,
  0x04, 0x00, 0x00, 0x00, 0x01, 0x00, 0x00, 0x00, 0xfe, 0xfc, 0xff, 0xff,
  0x00, 0x00, 0x00, 0x09, 0x01, 0x00, 0x00, 0x00, 0xd6, 0xd2, 0xff, 0xff,
  0x10, 0x00, 0x00, 0x00, 0x10, 0x00, 0x00, 0x00, 0x14, 0x00, 0x00, 0x00,
  0x2c, 0x00, 0x00, 0x00, 0x02, 0x00, 0x00, 0x00, 0x01, 0x00, 0x00, 0x00,
  0x10, 0x00, 0x00, 0x00, 0x15, 0x00, 0x00, 0x00, 0x73, 0x65, 0x71, 0x75,
  0x65, 0x6e, 0x74, 0x69, 0x61, 0x6c, 0x2f, 0x64, 0x65, 0x6e, 0x73, 0x65,
  0x2f, 0x52, 0x65, 0x6c, 0x75, 0x00, 0x00, 0x00, 0x1c, 0xd3, 0xff, 0xff,
  0x00, 0x00, 0x0a, 0x00, 0x10, 0x00, 0x04, 0x00, 0x08, 0x00, 0x0c, 0x00,
  0x0a, 0x00, 0x00, 0x00, 0x02, 0x00, 0x00, 0x00, 0x10, 0x00, 0x00, 0x00,
  0x04, 0x00, 0x00, 0x00, 0x01, 0x00, 0x00, 0x00, 0x0e, 0x00, 0x00, 0x00,
  0x02, 0x00, 0x00, 0x00, 0x0d, 0x00, 0x00, 0x00, 0x03, 0x00, 0x00, 0x00,
  0x7a, 0xfd, 0xff, 0xff, 0x00, 0x00, 0x00, 0x16, 0x01, 0x00, 0x00, 0x00,
  0x52, 0xd3, 0xff, 0xff, 0x10, 0x00, 0x00, 0x00, 0x0f, 0x00, 0x00, 0x00,
  0x14, 0x00, 0x00, 0x00, 0x30, 0x00, 0x00, 0x00, 0x02, 0x00, 0x00, 0x00,
  0x01, 0x00, 0x00, 0x00, 0x70, 0x00, 0x00, 0x00, 0x1a, 0x00, 0x00, 0x00,
  0x73, 0x65, 0x71, 0x75, 0x65, 0x6e, 0x74, 0x69, 0x61, 0x6c, 0x2f, 0x66,
  0x6c, 0x61, 0x74, 0x74, 0x65, 0x6e, 0x2f, 0x52, 0x65, 0x73, 0x68, 0x61,
  0x70, 0x65, 0x00, 0x00, 0x44, 0xd3, 0xff, 0xff, 0xe2, 0xfe, 0xff, 0xff,
  0x00, 0x00, 0x00, 0x05, 0x01, 0x00, 0x00, 0x00, 0x38, 0x00, 0x00, 0x00,
  0x2c, 0x00, 0x00, 0x00, 0x14, 0x00, 0x00, 0x00, 0x00, 0x00, 0x0e, 0x00,
  0x14, 0x00, 0x00, 0x00, 0x10, 0x00, 0x0c, 0x00, 0x08, 0x00, 0x04, 0x00,
  0x0e, 0x00, 0x00, 0x00, 0x03, 0x00, 0x00, 0x00, 0x01, 0x00, 0x00, 0x00,
  0x03, 0x00, 0x00, 0x00, 0x01, 0x00, 0x00, 0x00, 0x01, 0x00, 0x00, 0x00,
  0x0d, 0x00, 0x00, 0x00, 0x01, 0x00, 0x00, 0x00, 0x0c, 0x00, 0x00, 0x00,
  0xe2, 0xd3, 0xff, 0xff, 0x10, 0x00, 0x00, 0x00, 0x0e, 0x00, 0x00, 0x00,
  0x1c, 0x00, 0x00, 0x00, 0x40, 0x00, 0x00, 0x00, 0x04, 0x00, 0x00, 0x00,
  0x01, 0x00, 0x00, 0x00, 0x07, 0x00, 0x00, 0x00, 0x01, 0x00, 0x00, 0x00,
  0x10, 0x00, 0x00, 0x00, 0x22, 0x00, 0x00, 0x00, 0x73, 0x65, 0x71, 0x75,
  0x65, 0x6e, 0x74, 0x69, 0x61, 0x6c, 0x2f, 0x6d, 0x61, 0x78, 0x5f, 0x70,
  0x6f, 0x6f, 0x6c, 0x69, 0x6e, 0x67, 0x32, 0x64, 0x5f, 0x31, 0x2f, 0x4d,
  0x61, 0x78, 0x50, 0x6f, 0x6f, 0x6c, 0x00, 0x00, 0xe4, 0xd3, 0xff, 0xff,
  0xc2, 0xfe, 0xff, 0xff, 0x00, 0x00, 0x00, 0x01, 0x24, 0x00, 0x00, 0x00,
  0x18, 0x00, 0x00, 0x00, 0x04, 0x00, 0x00, 0x00, 0xb4, 0xfe, 0xff, 0xff,
  0x01, 0x00, 0x00, 0x00, 0x01, 0x00, 0x00, 0x00, 0x00, 0x00, 0x00, 0x01,
  0x01, 0x00, 0x00, 0x00, 0x0c, 0x00, 0x00, 0x00, 0x03, 0x00, 0x00, 0x00,
  0x0b, 0x00, 0x00, 0x00, 0x07, 0x00, 0x00, 0x00, 0x09, 0x00, 0x00, 0x00,
  0x72, 0xd4, 0xff, 0xff, 0x10, 0x00, 0x00, 0x00, 0x0d, 0x00, 0x00, 0x00,
  0x1c, 0x00, 0x00, 0x00, 0x2c, 0x00, 0x00, 0x00, 0x04, 0x00, 0x00, 0x00,
  0x01, 0x00, 0x00, 0x00, 0x15, 0x00, 0x00, 0x00, 0x01, 0x00, 0x00, 0x00,
  0x10, 0x00, 0x00, 0x00, 0x0c, 0x00, 0x00, 0x00, 0x74, 0x66, 0x6c, 0x2e,
  0x63, 0x6f, 0x6e, 0x76, 0x5f, 0x32, 0x64, 0x31, 0x00, 0x00, 0x00, 0x00,
  0xb8, 0xd4, 0xff, 0xff, 0x00, 0x00, 0x0e, 0x00, 0x1a, 0x00, 0x08, 0x00,
  0x0c, 0x00, 0x10, 0x00, 0x07, 0x00, 0x14, 0x00, 0x0e, 0x00, 0x00, 0x00,
  0x00, 0x00, 0x00, 0x05, 0x01, 0x00, 0x00, 0x00, 0x3c, 0x00, 0x00, 0x00,
  0x30, 0x00, 0x00, 0x00, 0x14, 0x00, 0x00, 0x00, 0x00, 0x00, 0x0e, 0x00,
  0x18, 0x00, 0x17, 0x00, 0x10, 0x00, 0x0c, 0x00, 0x08, 0x00, 0x04, 0x00,
  0x0e, 0x00, 0x00, 0x00, 0x03, 0x00, 0x00, 0x00, 0x03, 0x00, 0x00, 0x00,
  0x03, 0x00, 0x00, 0x00, 0x03, 0x00, 0x00, 0x00, 0x00, 0x00, 0x00, 0x01,
  0x01, 0x00, 0x00, 0x00, 0x0b, 0x00, 0x00, 0x00, 0x01, 0x00, 0x00, 0x00,
  0x0a, 0x00, 0x00, 0x00, 0x46, 0xff, 0xff, 0xff, 0x00, 0x00, 0x00, 0x11,
  0x01, 0x00, 0x00, 0x00, 0x1e, 0xd5, 0xff, 0xff, 0x10, 0x00, 0x00, 0x00,
  0x0c, 0x00, 0x00, 0x00, 0x1c, 0x00, 0x00, 0x00, 0x40, 0x00, 0x00, 0x00,
  0x04, 0x00, 0x00, 0x00, 0x01, 0x00, 0x00, 0x00, 0x15, 0x00, 0x00, 0x00,
  0x01, 0x00, 0x00, 0x00, 0x08, 0x00, 0x00, 0x00, 0x20, 0x00, 0x00, 0x00,
  0x73, 0x65, 0x71, 0x75, 0x65, 0x6e, 0x74, 0x69, 0x61, 0x6c, 0x2f, 0x6d,
  0x61, 0x78, 0x5f, 0x70, 0x6f, 0x6f, 0x6c, 0x69, 0x6e, 0x67, 0x32, 0x64,
  0x2f, 0x4d, 0x61, 0x78, 0x50, 0x6f, 0x6f, 0x6c, 0x00, 0x00, 0x00, 0x00,
  0x78, 0xd5, 0xff, 0xff, 0x00, 0x00, 0x0e, 0x00, 0x14, 0x00, 0x00, 0x00,
  0x08, 0x00, 0x0c, 0x00, 0x07, 0x00, 0x10, 0x00, 0x0e, 0x00, 0x00, 0x00,
  0x00, 0x00, 0x00, 0x01, 0x30, 0x00, 0x00, 0x00, 0x24, 0x00, 0x00, 0x00,
  0x10, 0x00, 0x00, 0x00, 0x0c, 0x00, 0x10, 0x00, 0x00, 0x00, 0x04, 0x00,
  0x08, 0x00, 0x0f, 0x00, 0x0c, 0x00, 0x00, 0x00, 0x01, 0x00, 0x00, 0x00,
  0x01, 0x00, 0x00, 0x00, 0x00, 0x00, 0x00, 0x01, 0x01, 0x00, 0x00, 0x00,
  0x0a, 0x00, 0x00, 0x00, 0x03, 0x00, 0x00, 0x00, 0x00, 0x00, 0x00, 0x00,
  0x06, 0x00, 0x00, 0x00, 0x08, 0x00, 0x00, 0x00, 0x00, 0x00, 0x0a, 0x00,
  0x0c, 0x00, 0x07, 0x00, 0x00, 0x00, 0x08, 0x00, 0x0a, 0x00, 0x00, 0x00,
  0x00, 0x00, 0x00, 0x03, 0x01, 0x00, 0x00, 0x00, 0xe2, 0xd5, 0xff, 0xff,
  0x10, 0x00, 0x00, 0x00, 0x0b, 0x00, 0x00, 0x00, 0x1c, 0x00, 0x00, 0x00,
  0x28, 0x00, 0x00, 0x00, 0x04, 0x00, 0x00, 0x00, 0x01, 0x00, 0x00, 0x00,
  0x40, 0x00, 0x00, 0x00, 0x03, 0x00, 0x00, 0x00, 0x08, 0x00, 0x00, 0x00,
  0x0b, 0x00, 0x00, 0x00, 0x74, 0x66, 0x6c, 0x2e, 0x63, 0x6f, 0x6e, 0x76,
  0x5f, 0x32, 0x64, 0x00, 0xcc, 0xd5, 0xff, 0xff, 0xc2, 0xd6, 0xff, 0xff,
  0x04, 0x00, 0x00, 0x00, 0x40, 0x00, 0x00, 0x00, 0xef, 0x36, 0x11, 0x3e,
  0xb5, 0x84, 0xa0, 0xbf, 0x30, 0xa0, 0x2c, 0xc0, 0x16, 0x1d, 0x1a, 0x40,
  0x98, 0xa4, 0x81, 0x3e, 0x85, 0x4c, 0x53, 0x3f, 0xc0, 0xe2, 0x4b, 0x3f,
  0x70, 0x29, 0xa1, 0x3f, 0x6b, 0x3a, 0x20, 0xc0, 0x3d, 0x72, 0x69, 0x3f,
  0xcb, 0xa8, 0x9c, 0xbf, 0x7f, 0xc7, 0x1f, 0xc0, 0xfb, 0xa9, 0x28, 0x3f,
  0xfd, 0xa5, 0x92, 0x3e, 0x91, 0x72, 0x2c, 0xc0, 0xda, 0x60, 0x32, 0x3f,
  0x6a, 0xd6, 0xff, 0xff, 0x10, 0x00, 0x00, 0x00, 0x0a, 0x00, 0x00, 0x00,
  0x10, 0x00, 0x00, 0x00, 0x20, 0x00, 0x00, 0x00, 0x01, 0x00, 0x00, 0x00,
  0x10, 0x00, 0x00, 0x00, 0x0d, 0x00, 0x00, 0x00, 0x73, 0x74, 0x64, 0x2e,
  0x63, 0x6f, 0x6e, 0x73, 0x74, 0x61, 0x6e, 0x74, 0x31, 0x00, 0x00, 0x00,
  0x4c, 0xd6, 0xff, 0xff, 0x42, 0xd7, 0xff, 0xff, 0x04, 0x00, 0x00, 0x00,
  0x20, 0x00, 0x00, 0x00, 0xd5, 0xde, 0x10, 0xbf, 0xfb, 0xac, 0x6f, 0xbf,
  0x54, 0xff, 0x93, 0xbf, 0xe5, 0x22, 0xe3, 0x3e, 0xa4, 0x66, 0x0b, 0xc0,
  0x83, 0xb3, 0xbc, 0xbe, 0x47, 0xc8, 0x17, 0xbf, 0xe3, 0x20, 0x7b, 0xbf,
  0xca, 0xd6, 0xff, 0xff, 0x10, 0x00, 0x00, 0x00, 0x09, 0x00, 0x00, 0x00,
  0x10, 0x00, 0x00, 0x00, 0x20, 0x00, 0x00, 0x00, 0x01, 0x00, 0x00, 0x00,
  0x08, 0x00, 0x00, 0x00, 0x0c, 0x00, 0x00, 0x00, 0x73, 0x74, 0x64, 0x2e,
  0x63, 0x6f, 0x6e, 0x73, 0x74, 0x61, 0x6e, 0x74, 0x00, 0x00, 0x00, 0x00,
  0xac, 0xd6, 0xff, 0xff, 0xa2, 0xd7, 0xff, 0xff, 0x04, 0x00, 0x00, 0x00,
  0x00, 0x08, 0x00, 0x00, 0x20, 0xee, 0x08, 0xbe, 0xf5, 0xe4, 0xe4, 0x3e,
  0xaf, 0xe6, 0x2a, 0x3e, 0x3d, 0x08, 0xc4, 0x3d, 0xeb, 0x2e, 0x1b, 0x3e,
  0x6a, 0xad, 0xe8, 0xbe, 0x9f, 0x6b, 0xe4, 0x3d, 0xd8, 0x17, 0x03, 0x3e,
  0xf4, 0x49, 0xd6, 0xbe, 0xf9, 0x9c, 0x44, 0x3d, 0x12, 0xa1, 0xcf, 0xbb,
  0xc0, 0xd3, 0x50, 0x3e, 0x32, 0x29, 0x47, 0xbe, 0x20, 0xbc, 0xf4, 0xbe,
  0x29, 0x9e, 0x41, 0x3e, 0x52, 0x9b, 0x73, 0x3d, 0x51, 0x68, 0xba, 0xbe,
  0xbc, 0x93, 0x13, 0x3e, 0x9b, 0x59, 0x71, 0x3e, 0xb0, 0xa0, 0x7f, 0x3d,
  0x9a, 0x02, 0xb4, 0xbd, 0x2d, 0xc6, 0x8b, 0xbe, 0x75, 0x6c, 0x8d, 0xbc,
  0xfc, 0x8c, 0x93, 0x3e, 0x85, 0xee, 0xae, 0xbe, 0x28, 0x1c, 0x8d, 0x3e,
  0xcc, 0x2c, 0x9b, 0x3d, 0x00, 0xd0, 0x01, 0xbe, 0x17, 0xf7, 0x31, 0x3c,
  0x4e, 0x28, 0xcf, 0xbd, 0x7a, 0x95, 0x50, 0xbe, 0xe8, 0x96, 0x52, 0x3e,
  0x3e, 0xed, 0xeb, 0xbd, 0x60, 0x9b, 0x35, 0xbe, 0x9e, 0x6e, 0xb2, 0x3d,
  0x06, 0x29, 0x26, 0xbe, 0x1a, 0x4d, 0x77, 0x3d, 0xc0, 0x2c, 0x35, 0xbd,
  0x54, 0x1e, 0x4c, 0xbd, 0xc2, 0x80, 0xe0, 0x3e, 0xb3, 0xf5, 0xb6, 0xbd,
  0x7e, 0x4f, 0xe1, 0x3d, 0x7c, 0x27, 0x65, 0x3d, 0x94, 0x9c, 0x27, 0xbd,
  0x71, 0x8a, 0x2f, 0x3e, 0x20, 0xd2, 0x1d, 0xbe, 0x13, 0x03, 0x7a, 0xbd,
  0x7c, 0x34, 0xba, 0xbe, 0xc6, 0xfe, 0x49, 0xbd, 0xde, 0x25, 0x09, 0x3f,
  0xc9, 0xe5, 0x2e, 0xbe, 0x85, 0xa0, 0x26, 0xbe, 0x71, 0x3d, 0x3f, 0xbe,
  0x29, 0x8b, 0x0b, 0xbe, 0x67, 0xca, 0x18, 0x3f, 0x5a, 0xc1, 0x72, 0xbe,
  0xe0, 0x0b, 0x10, 0x3e, 0x8f, 0xbd, 0xc0, 0x3d, 0xc7, 0xda, 0x5b, 0xbd,
  0x28, 0x55, 0xe6, 0xbc, 0xb5, 0x9a, 0x71, 0xbc, 0xdf, 0xe9, 0xfc, 0xbd,
  0xde, 0xa1, 0x72, 0xbd, 0x82, 0x97, 0x3b, 0x3d, 0x54, 0x76, 0x76, 0xbe,
  0x41, 0xbc, 0xab, 0xbe, 0xb8, 0x55, 0x14, 0x3f, 0x8a, 0xe8, 0x44, 0xbe,
  0x40, 0x8c, 0x4e, 0x3e, 0xd4, 0x30, 0xbf, 0xbd, 0xa7, 0xdf, 0x01, 0xbf,
  0x21, 0x57, 0xa1, 0xbe, 0x55, 0xd6, 0xc1, 0xbe, 0x72, 0x84, 0x13, 0xbe,
  0xf9, 0xe8, 0xfe, 0xbd, 0x6a, 0x50, 0x21, 0x3d, 0x3c, 0xce, 0x00, 0x3f,
  0x7b, 0xd0, 0x67, 0xbd, 0x42, 0x57, 0x21, 0xbb, 0x47, 0xe1, 0x91, 0x3e,
  0xf1, 0x14, 0x00, 0x3c, 0xdc, 0xb7, 0xc6, 0x3e, 0x1b, 0xa6, 0x61, 0xbe,
  0xc0, 0x60, 0xd5, 0xbd, 0x3c, 0xe7, 0x95, 0xbe, 0xdb, 0xfb, 0x39, 0xbd,
  0x66, 0x10, 0xb2, 0x3e, 0x74, 0x93, 0x7a, 0xbe, 0x41, 0x34, 0xb1, 0x3d,
  0xe4, 0xa1, 0x84, 0x3c, 0x30, 0xe0, 0x0c, 0xbe, 0xef, 0x30, 0x14, 0xbe,
  0xe2, 0x0c, 0x62, 0xbe, 0x2b, 0x61, 0x0c, 0xbe, 0x91, 0x70, 0xe0, 0x3d,
  0xd0, 0x4d, 0x45, 0xbd, 0x11, 0x33, 0x2a, 0xbe, 0xdf, 0x7f, 0xfa, 0xbe,
  0xa8, 0xca, 0xe4, 0xbd, 0x90, 0xfa, 0x4d, 0xbe, 0x2b, 0x14, 0x36, 0xbe,
  0x22, 0xbd, 0xa8, 0xbd, 0xdc, 0x26, 0x8a, 0xbe, 0xe7, 0x59, 0xfe, 0xbe,
  0x1d, 0x85, 0xc8, 0xba, 0xa2, 0x6d, 0x90, 0x3e, 0x30, 0xd2, 0xee, 0xbd,
  0x1b, 0x0c, 0x5f, 0x3e, 0xa9, 0xea, 0x80, 0xbd, 0x1b, 0x2b, 0x72, 0xbe,
  0x33, 0x4c, 0xd8, 0xbd, 0x8e, 0xb4, 0x20, 0xbd, 0x1f, 0x4c, 0x89, 0xbd,
  0xdf, 0x8c, 0xa4, 0xbd, 0x56, 0xe0, 0xe4, 0xbd, 0x4f, 0x58, 0x59, 0x3c,
  0x96, 0x82, 0x87, 0xbd, 0x87, 0xad, 0x02, 0xbe, 0xb8, 0x7a, 0x0d, 0xbc,
  0xac, 0x14, 0x5d, 0x3e, 0xa1, 0xcd, 0x40, 0xbd, 0xda, 0x9e, 0x88, 0xbd,
  0x16, 0x5c, 0xab, 0xbd, 0x32, 0x9a, 0x18, 0x3e, 0x7b, 0xd0, 0x78, 0x3e,
  0x43, 0x0e, 0xc5, 0x3d, 0x6c, 0x9e, 0xb5, 0x3c, 0xb0, 0x61, 0x32, 0x3d,
  0x30, 0x3c, 0xe7, 0xbd, 0xc2, 0xdb, 0xc1, 0x3e, 0x53, 0x4e, 0xae, 0xbe,
  0x82, 0x45, 0x40, 0x3d, 0xf5, 0xea, 0x85, 0xbe, 0xee, 0x96, 0x0f, 0xbe,
  0x4b, 0x4f, 0x7c, 0x3e, 0x2a, 0x45, 0x2a, 0xbe, 0xf0, 0x09, 0x6a, 0xbc,
  0xdc, 0x3b, 0x0b, 0x3d, 0x09, 0x45, 0xba, 0xbe, 0xc4, 0x56, 0x5c, 0x3b,
  0x4f, 0x80, 0x64, 0xbe, 0xcd, 0x73, 0x36, 0xbd, 0x2e, 0xca, 0x4e, 0xbd,
  0x21, 0xca, 0xb2, 0xbe, 0xc7, 0xe0, 0xe6, 0x3d, 0xf7, 0x5a, 0x67, 0x3d,
  0x2e, 0x66, 0x7d, 0xbe, 0x2f, 0x70, 0x57, 0x3c, 0xe8, 0x38, 0xf0, 0xbd,
  0x66, 0x1a, 0x5b, 0x3d, 0x99, 0xb4, 0x8a, 0x3a, 0xd6, 0x63, 0x36, 0xbe,
  0x5d, 0x5e, 0x1a, 0x3e, 0x50, 0xed, 0x8c, 0xbe, 0xf9, 0x94, 0x85, 0x3e,
  0x10, 0xf8, 0x89, 0x3e, 0xcf, 0xfb, 0x25, 0x3e, 0x37, 0x3d, 0x8d, 0x3d,
  0x1c, 0x31, 0x02, 0x3e, 0x68, 0xe8, 0x0a, 0x3d, 0x6c, 0x9a, 0x61, 0x3d,
  0x1b, 0xf5, 0xb4, 0xbd, 0x64, 0x1e, 0x6a, 0xbe, 0x4c, 0x23, 0x43, 0xbf,
  0x5f, 0xda, 0x84, 0xbd, 0xc0, 0xd1, 0x39, 0xbe, 0xc9, 0x86, 0x41, 0xbe,
  0xcc, 0xd9, 0x46, 0xbe, 0xd9, 0xce, 0xe1, 0x3d, 0x16, 0x52, 0xa5, 0x3e,
  0x6a, 0x8b, 0xfa, 0xbd, 0x2b, 0x13, 0x89, 0x3e, 0x7c, 0x95, 0x85, 0xbe,
  0x4e, 0x9a, 0xd7, 0xbd, 0x09, 0xe2, 0xbf, 0xbd, 0xc2, 0xc1, 0x04, 0xbe,
  0x09, 0x15, 0x02, 0x3d, 0x5a, 0x11, 0x57, 0xbe, 0x23, 0xf5, 0x98, 0x3b,
  0xef, 0x79, 0x25, 0xbd, 0xb0, 0x59, 0x77, 0x3c, 0x6b, 0xc8, 0x04, 0xbd,
  0x19, 0x4c, 0xe9, 0x3c, 0xf8, 0xac, 0x4f, 0xbe, 0xb5, 0x0a, 0x28, 0x3d,
  0x32, 0xce, 0x90, 0xbc, 0xc4, 0xba, 0x01, 0xbe, 0x9b, 0x72, 0x87, 0x3e,
  0xe0, 0xe2, 0x8f, 0x3d, 0x0f, 0x18, 0x29, 0xbe, 0xc5, 0x71, 0x9a, 0x3d,
  0xfa, 0x1d, 0xa0, 0xbe, 0xf6, 0x53, 0x05, 0x3e, 0x3c, 0x09, 0xb3, 0xbd,
  0x56, 0x95, 0x87, 0x3d, 0xe1, 0xea, 0x39, 0x3d, 0x9e, 0x1c, 0xd7, 0x3c,
  0x86, 0x57, 0x8d, 0x3d, 0xe6, 0x1e, 0x3d, 0x3d, 0x56, 0xf6, 0x48, 0x3e,
  0x58, 0xb2, 0x83, 0x3c, 0x57, 0x25, 0x93, 0x3d, 0xb2, 0xbd, 0x70, 0x3e,
  0x1f, 0x0b, 0x06, 0x3e, 0xaf, 0x54, 0x4e, 0xbd, 0x4e, 0x41, 0x12, 0x3e,
  0x99, 0x82, 0x22, 0x3e, 0xa8, 0x7e, 0x15, 0x3e, 0x5a, 0x7a, 0x4e, 0x3e,
  0x3c, 0x22, 0x1e, 0x3e, 0x83, 0x26, 0x4b, 0xbc, 0xa1, 0x2f, 0x4b, 0x3d,
  0xf8, 0xac, 0x34, 0x3e, 0x03, 0x96, 0x03, 0x3d, 0xa7, 0xe5, 0xdf, 0xbd,
  0xc3, 0x1f, 0xe8, 0xbd, 0x41, 0x04, 0x53, 0x3c, 0x9a, 0xdb, 0xd9, 0x3e,
  0x60, 0xbc, 0x3e, 0x3e, 0xd8, 0x9d, 0xda, 0xbc, 0xac, 0x1f, 0xa1, 0xbd,
  0xa4, 0x0d, 0x1d, 0x3d, 0x1c, 0x5c, 0x3f, 0x3e, 0x67, 0x97, 0xcd, 0xbc,
  0x07, 0x42, 0x2f, 0xbe, 0x15, 0x6e, 0x3e, 0xbd, 0x6c, 0xb3, 0xab, 0x3e,
  0xf5, 0xdc, 0xc1, 0xbc, 0xe5, 0xea, 0x86, 0x3d, 0x52, 0x5a, 0x61, 0xbd,
  0x68, 0xba, 0xa3, 0xbc, 0xbc, 0x4a, 0x08, 0xbf, 0x86, 0x4a, 0x96, 0xbe,
  0x22, 0xfd, 0xf3, 0xbc, 0x94, 0xd3, 0x9d, 0x3d, 0xbc, 0xe8, 0xba, 0xbd,
  0xdc, 0xb4, 0x20, 0xbd, 0x7b, 0x9f, 0xe4, 0xbc, 0x8b, 0x2e, 0xd7, 0xbd,
  0x3b, 0x54, 0xdd, 0x3e, 0xde, 0xe2, 0x4c, 0xbe, 0x57, 0x10, 0x54, 0x3e,
  0x24, 0x1f, 0x0d, 0x3d, 0xa4, 0x81, 0x0a, 0xbe, 0xdd, 0x52, 0x75, 0xbd,
  0x90, 0xcb, 0x23, 0xbd, 0xcd, 0x58, 0xec, 0xbd, 0xc0, 0x51, 0x27, 0x3e,
  0xbc, 0x31, 0x4d, 0x3e, 0xf0, 0xcd, 0x26, 0x3e, 0x60, 0xd3, 0x57, 0x3d,
  0xb4, 0x96, 0x5d, 0x3d, 0xfa, 0xf5, 0x0a, 0xbe, 0x7f, 0x72, 0x85, 0xbd,
  0x9f, 0x56, 0xa5, 0xbd, 0x38, 0x31, 0x3c, 0x3d, 0xcc, 0x03, 0x14, 0xbe,
  0x54, 0xad, 0xa3, 0xbe, 0xf6, 0x02, 0x0b, 0xbf, 0xfd, 0xf1, 0xb6, 0xbe,
  0xf2, 0x3e, 0x5c, 0xbe, 0x46, 0x1a, 0x92, 0xbc, 0xd2, 0xc3, 0x8a, 0xbb,
  0xad, 0x63, 0x10, 0xbf, 0x39, 0x7c, 0xc7, 0xbd, 0x33, 0x12, 0xbd, 0xbc,
  0xda, 0x55, 0x01, 0x3f, 0x7d, 0xa1, 0xe1, 0xbd, 0xda, 0xf2, 0x1b, 0x3e,
  0x27, 0x37, 0xfb, 0x3c, 0xd6, 0x63, 0xc6, 0xbd, 0xea, 0xc6, 0xbc, 0x3e,
  0xd3, 0xc5, 0x58, 0x3d, 0x9e, 0x83, 0x83, 0x3e, 0x37, 0x30, 0x13, 0x3e,
  0x2e, 0x0e, 0xbc, 0xbd, 0x84, 0x0a, 0xfe, 0x3d, 0xd5, 0x73, 0x0c, 0xbe,
  0x38, 0xeb, 0x96, 0x3e, 0xbf, 0xae, 0x08, 0xbd, 0x70, 0x9d, 0xe4, 0x3c,
  0x03, 0x05, 0x10, 0xbe, 0x96, 0x34, 0x93, 0xbe, 0x8b, 0xd9, 0x19, 0xbe,
  0x47, 0xd5, 0xa0, 0xbe, 0x23, 0x66, 0xc7, 0xbd, 0x22, 0x4c, 0x96, 0xbb,
  0x7e, 0x8e, 0xdf, 0xbe, 0x5a, 0x1b, 0x41, 0xbb, 0x92, 0xa0, 0x1d, 0x3e,
  0x22, 0x2c, 0x2c, 0x3c, 0x2f, 0x6a, 0x27, 0x3d, 0xab, 0xd3, 0x70, 0x3e,
  0x8f, 0x0e, 0xaa, 0x3e, 0xf8, 0xcb, 0xad, 0xbd, 0x13, 0x7f, 0xda, 0x3d,
  0x9d, 0x91, 0x54, 0xbd, 0xe9, 0x4c, 0xc7, 0x3d, 0x30, 0xec, 0x87, 0x3c,
  0x9f, 0x68, 0x5c, 0x3d, 0xaa, 0x65, 0x31, 0x3d, 0x50, 0x82, 0x08, 0xbd,
  0x99, 0x48, 0xaf, 0x3e, 0x02, 0x33, 0xfd, 0x3d, 0x5e, 0x4b, 0x01, 0xbd,
  0x20, 0x5f, 0x05, 0x3c, 0x38, 0xbf, 0x6b, 0x3e, 0x1b, 0xa8, 0x16, 0xbe,
  0x74, 0x13, 0x51, 0x3e, 0x71, 0x72, 0x52, 0xbc, 0x34, 0x55, 0x00, 0xbd,
  0x8c, 0xa0, 0x01, 0x3e, 0x90, 0xa0, 0xbe, 0xbd, 0x74, 0x89, 0xb1, 0x3d,
  0xd6, 0x28, 0xc9, 0xbd, 0xb1, 0xa6, 0x65, 0x3e, 0x97, 0x3a, 0x94, 0x3d,
  0x31, 0x76, 0xe3, 0x3d, 0x0f, 0xac, 0xda, 0x3c, 0x3e, 0xdb, 0x04, 0x3e,
  0x16, 0x01, 0x10, 0xbe, 0xc5, 0x1f, 0x6d, 0x3d, 0xf3, 0x5c, 0xa8, 0x3e,
  0x84, 0x5c, 0xc3, 0x3d, 0x66, 0xf2, 0xf0, 0xbd, 0x51, 0xcc, 0x4a, 0xbe,
  0xdc, 0xb9, 0x99, 0x3d, 0x0e, 0xa2, 0xc9, 0x3c, 0xa5, 0xe1, 0xc2, 0xbd,
  0x17, 0x08, 0xfd, 0x3c, 0xd1, 0x98, 0x1f, 0x3e, 0x14, 0xe4, 0x81, 0x3d,
  0x99, 0xbc, 0x9b, 0x3e, 0x00, 0x77, 0x4e, 0xbe, 0x88, 0x13, 0xdb, 0x3e,
  0x7b, 0xa8, 0x0d, 0x3e, 0x53, 0x3b, 0xc3, 0x3d, 0x5a, 0x93, 0x46, 0x3e,
  0xde, 0xa8, 0xeb, 0x3c, 0xbd, 0xfa, 0x4d, 0x3c, 0x12, 0xad, 0x84, 0xbd,
  0x29, 0x17, 0xac, 0xbe, 0x7f, 0xd1, 0x20, 0x3d, 0xbd, 0xa2, 0x20, 0xbd,
  0x28, 0xe9, 0xe3, 0xbd, 0x28, 0x15, 0xc7, 0x3d, 0xdb, 0x14, 0x2e, 0xbe,
  0x7a, 0x35, 0x86, 0xbc, 0x8f, 0xf9, 0x3d, 0xbe, 0x39, 0x5f, 0x88, 0xbe,
  0x0f, 0xcc, 0x5d, 0x3d, 0xaf, 0xae, 0x26, 0x3e, 0x6b, 0xd4, 0x81, 0xbe,
  0xe7, 0x0f, 0xcc, 0xbe, 0xee, 0xe4, 0x00, 0xbf, 0xcc, 0x8d, 0x1f, 0xbe,
  0x1c, 0xb2, 0xdf, 0x3e, 0xa3, 0xe2, 0x4c, 0x3d, 0xc9, 0xf7, 0x3a, 0xbf,
  0xe5, 0x64, 0x9a, 0x3e, 0x2d, 0x8a, 0x07, 0xbf, 0xc9, 0x38, 0x99, 0xbe,
  0xd0, 0x81, 0x05, 0x3f, 0x95, 0x5b, 0x20, 0xbd, 0xa2, 0xe0, 0x5f, 0x3e,
  0xc8, 0x4c, 0x26, 0xbd, 0x35, 0xb1, 0x69, 0xbe, 0xbe, 0x57, 0xef, 0x3b,
  0x42, 0x5e, 0x0d, 0xbd, 0x85, 0x7a, 0xaa, 0x3e, 0x19, 0x13, 0xb1, 0xbe,
  0xae, 0x25, 0x61, 0xbd, 0x76, 0xa2, 0x86, 0xbe, 0xda, 0x4c, 0xd3, 0xbc,
  0x1f, 0x22, 0x71, 0x3d, 0xf6, 0x3b, 0x01, 0xbf, 0xd2, 0x4f, 0x56, 0x3e,
  0x10, 0xd2, 0xfd, 0x3d, 0xdc, 0x72, 0xa8, 0xbd, 0x21, 0xcf, 0x4f, 0xbc,
  0x2a, 0xae, 0x1c, 0xbe, 0x2d, 0x00, 0x1d, 0xbd, 0x29, 0x04, 0x87, 0x3e,
  0xe2, 0x6b, 0x43, 0xbe, 0xea, 0x52, 0x32, 0x3e, 0x3f, 0x64, 0x7a, 0x3d,
  0x22, 0x95, 0x78, 0x3c, 0x9c, 0xf1, 0xfb, 0x3c, 0x14, 0xaa, 0x92, 0x3e,
  0xc5, 0x80, 0xfa, 0xbd, 0xd1, 0x1c, 0x2e, 0x3e, 0x49, 0x78, 0x9a, 0x3e,
  0xd0, 0x4d, 0x33, 0x3d, 0xa1, 0x36, 0xe8, 0xb9, 0xa1, 0x6d, 0xa3, 0x3e,
  0x23, 0x36, 0x03, 0xbd, 0xe9, 0x53, 0x44, 0xbc, 0x29, 0x90, 0x3d, 0xbd,
  0x14, 0xc3, 0x03, 0xbd, 0xb3, 0x3e, 0xb9, 0xbd, 0x61, 0xed, 0xa2, 0x3d,
  0x23, 0xe0, 0x00, 0xbf, 0x77, 0x35, 0xe3, 0x3d, 0x85, 0x70, 0xf2, 0x3d,
  0xfa, 0x65, 0xff, 0xbd, 0x84, 0x23, 0x63, 0xbc, 0xe3, 0x66, 0x2e, 0x3d,
  0xd5, 0xdb, 0x05, 0xbe, 0x48, 0xa9, 0x7b, 0xbd, 0x7d, 0xe1, 0x9c, 0xbe,
  0x8d, 0xba, 0x9d, 0xbe, 0x43, 0x5a, 0xb6, 0x3d, 0x86, 0x11, 0x88, 0xbc,
  0x3b, 0xa9, 0xe2, 0xbc, 0xb2, 0x06, 0x73, 0xbe, 0xce, 0x59, 0x60, 0x3e,
  0x95, 0xe8, 0x49, 0x3e, 0x8a, 0x93, 0x48, 0x3e, 0xc0, 0xe8, 0x70, 0xbc,
  0xeb, 0xae, 0x58, 0xbe, 0xe5, 0x76, 0x59, 0xbe, 0x53, 0xcb, 0xea, 0xbe,
  0x33, 0x02, 0xae, 0x3d, 0x7c, 0xb4, 0x02, 0x3e, 0xa1, 0x24, 0xf2, 0xbc,
  0x38, 0x49, 0xb1, 0x3e, 0x92, 0x15, 0xa6, 0xbd, 0xb5, 0x49, 0x78, 0x3e,
  0x55, 0x56, 0xcd, 0xbd, 0x7b, 0xda, 0x95, 0xbe, 0x9c, 0x27, 0x56, 0xbd,
  0xee, 0x2e, 0x94, 0x3b, 0x6c, 0x30, 0x02, 0xbe, 0x7d, 0xbd, 0x49, 0xbd,
  0xdf, 0xed, 0x99, 0x3d, 0x7f, 0x9e, 0x08, 0x3e, 0xa1, 0x0d, 0x22, 0xbe,
  0x49, 0x59, 0x8a, 0xbd, 0x23, 0x41, 0xcf, 0x3d, 0xb9, 0xad, 0xe1, 0xbd,
  0x00, 0x27, 0x65, 0xbe, 0x61, 0xed, 0x5a, 0xbd, 0x39, 0x8b, 0x3a, 0x3e,
  0xb5, 0xa0, 0x29, 0xbd, 0xe2, 0x0b, 0xa3, 0x3d, 0x91, 0x3f, 0x8f, 0xbe,
  0xa9, 0x7b, 0xda, 0xbd, 0xf4, 0x69, 0x94, 0xbc, 0xe9, 0x0f, 0x96, 0xbd,
  0xd2, 0xe5, 0x45, 0xbe, 0x2d, 0x6d, 0x09, 0x3d, 0xb1, 0xb3, 0x01, 0xbe,
  0x6f, 0x80, 0x6d, 0x3d, 0xe0, 0xe6, 0xdc, 0xbc, 0x43, 0x9c, 0x65, 0xbe,
  0xd4, 0xca, 0x42, 0x3f, 0xe8, 0xe5, 0x60, 0xbd, 0xf4, 0xa8, 0x0d, 0xbf,
  0x32, 0x50, 0xa3, 0x3e, 0xcc, 0xd8, 0xb1, 0x3c, 0x64, 0xb7, 0x42, 0x3e,
  0xba, 0x34, 0x1e, 0xbd, 0x7a, 0xea, 0xf0, 0xbe, 0x55, 0x71, 0xd5, 0x3d,
  0xdc, 0x4d, 0xed, 0xbc, 0x1f, 0x99, 0x87, 0x3c, 0x85, 0xd4, 0xe4, 0xbe,
  0xff, 0x44, 0xaa, 0xbd, 0xf8, 0xe6, 0xce, 0xbe, 0x34, 0x66, 0xb2, 0xbd,
  0x6b, 0xd1, 0xcc, 0x3e, 0x6e, 0x10, 0xb1, 0xbe, 0x49, 0x33, 0xf5, 0x3c,
  0xfe, 0x78, 0xb4, 0x3e, 0x47, 0xea, 0x9d, 0xbe, 0x19, 0x55, 0x19, 0xbe,
  0xf7, 0x73, 0x88, 0xbe, 0xbb, 0x90, 0x73, 0xbd, 0x70, 0xac, 0x62, 0x3e,
  0x87, 0xac, 0x9d, 0xbe, 0xa7, 0x22, 0x68, 0x3d, 0x39, 0x69, 0xf8, 0xbd,
  0x99, 0xf1, 0x1d, 0xbe, 0x43, 0x24, 0x13, 0xbe, 0x66, 0x8f, 0x75, 0xbe,
  0x37, 0xbb, 0x0d, 0xbe, 0xd2, 0x9e, 0x0d, 0xbd, 0x4a, 0xe8, 0x04, 0x3e,
  0x46, 0x0b, 0xc8, 0x3e, 0xa6, 0x81, 0x9d, 0x3e, 0x1d, 0x8f, 0x4c, 0x3e,
  0x37, 0xca, 0xf9, 0x3e, 0xd2, 0x43, 0x34, 0x3e, 0x79, 0x51, 0xa5, 0xbd,
  0xed, 0xdf, 0x84, 0x3e, 0x3d, 0xc7, 0xc8, 0xbc, 0x6a, 0x69, 0xc8, 0x3d,
  0x4d, 0x96, 0x82, 0x3b, 0xe8, 0x94, 0xd4, 0x3d, 0x85, 0x88, 0x04, 0x3e,
  0x1f, 0x79, 0xcc, 0xbd, 0xb9, 0x9a, 0x74, 0xbc, 0x58, 0x11, 0x4b, 0xbe,
  0x03, 0x97, 0x27, 0x3e, 0x16, 0x82, 0xcb, 0x3d, 0xf2, 0xf8, 0x24, 0x3e,
  0x4a, 0x67, 0xfd, 0x3d, 0x9a, 0x63, 0xb3, 0xbd, 0x4f, 0x21, 0xf9, 0xbd,
  0x03, 0xcc, 0xea, 0xbb, 0x4a, 0x38, 0xb6, 0x3b, 0xb6, 0x34, 0x23, 0x3e,
  0x0a, 0xdf, 0xff, 0xff, 0x10, 0x00, 0x00, 0x00, 0x08, 0x00, 0x00, 0x00,
  0x1c, 0x00, 0x00, 0x00, 0x38, 0x00, 0x00, 0x00, 0x04, 0x00, 0x00, 0x00,
  0x10, 0x00, 0x00, 0x00, 0x04, 0x00, 0x00, 0x00, 0x01, 0x00, 0x00, 0x00,
  0x08, 0x00, 0x00, 0x00, 0x1a, 0x00, 0x00, 0x00, 0x73, 0x65, 0x71, 0x75,
  0x65, 0x6e, 0x74, 0x69, 0x61, 0x6c, 0x2f, 0x63, 0x6f, 0x6e, 0x76, 0x32,
  0x64, 0x5f, 0x31, 0x2f, 0x43, 0x6f, 0x6e, 0x76, 0x32, 0x44, 0x00, 0x00,
  0x04, 0xdf, 0xff, 0xff, 0xfa, 0xdf, 0xff, 0xff, 0x04, 0x00, 0x00, 0x00,
  0x80, 0x01, 0x00, 0x00, 0x52, 0x9a, 0x79, 0xbd, 0x1d, 0xd5, 0xdc, 0xbd,
  0x02, 0x84, 0xbc, 0xbd, 0x39, 0x0d, 0x08, 0xbd, 0xe8, 0xd0, 0xff, 0xbd,
  0xf8, 0x38, 0xc9, 0xbd, 0x7d, 0x90, 0x89, 0x3c, 0xbd, 0x0f, 0x82, 0xbc,
  0x26, 0xc9, 0x09, 0xbd, 0x0f, 0xd2, 0x91, 0xbd, 0x9f, 0x06, 0x8b, 0xbd,
  0x6d, 0x49, 0x91, 0xbd, 0x20, 0xe5, 0xb8, 0x3e, 0x02, 0xd3, 0xcf, 0x3e,
  0xc5, 0x16, 0x9c, 0xbe, 0x7e, 0x4c, 0x65, 0xbe, 0x82, 0xef, 0x9c, 0xbe,
  0x30, 0x46, 0x48, 0x3e, 0xe0, 0xc2, 0x98, 0xbd, 0xfd, 0x0d, 0x9e, 0xbe,
  0xee, 0x93, 0xd0, 0x3d, 0x82, 0x7c, 0x1e, 0xbe, 0xe0, 0xdc, 0xa5, 0x3d,
  0x6e, 0x54, 0x1f, 0x3c, 0x14, 0x8c, 0xae, 0xbd, 0x15, 0x62, 0xd1, 0xbc,
  0x89, 0x00, 0x39, 0xbd, 0x18, 0xa7, 0x26, 0xbe, 0x93, 0xe3, 0x01, 0xbf,
  0x1a, 0x39, 0xda, 0xbe, 0x7c, 0x6b, 0x1b, 0x3e, 0xca, 0x3c, 0x7d, 0x3e,
  0x48, 0x1a, 0x88, 0x3e, 0xff, 0xc6, 0x28, 0x3e, 0xa9, 0xee, 0x85, 0x3e,
  0xe7, 0x9c, 0x61, 0x3e, 0xe6, 0xa1, 0x10, 0xbe, 0x6b, 0x9b, 0x09, 0xbe,
  0x29, 0xd1, 0xd6, 0x3d, 0xa7, 0x0b, 0x45, 0xbc, 0x95, 0x57, 0xa1, 0x3e,
  0xd4, 0x1a, 0x08, 0x3e, 0x19, 0x04, 0x83, 0x3e, 0x2b, 0x7f, 0x5d, 0xbe,
  0x16, 0xe6, 0x52, 0xbd, 0x7c, 0x43, 0xc2, 0xbd, 0xcf, 0xbe, 0xdd, 0x3d,
  0x0d, 0x8b, 0xd8, 0x3d, 0x1c, 0xcf, 0xc2, 0xba, 0x76, 0x7b, 0x19, 0xbd,
  0x45, 0x6d, 0x83, 0xbd, 0x4a, 0xf1, 0x9b, 0xbd, 0x9b, 0x52, 0x12, 0xbe,
  0xfb, 0x82, 0xdd, 0xbe, 0xc0, 0x74, 0x89, 0x3d, 0x0a, 0x61, 0x16, 0x3d,
  0x34, 0x87, 0x85, 0x3e, 0x95, 0x06, 0x14, 0x3e, 0x96, 0x4c, 0xf9, 0x3d,
  0x66, 0x0d, 0x99, 0x3e, 0x56, 0x46, 0x05, 0x3e, 0xca, 0xf4, 0xae, 0xbc,
  0x12, 0xdc, 0xc5, 0xbd, 0xb3, 0xb0, 0x98, 0x3d, 0x86, 0xb9, 0x5b, 0x3c,
  0x81, 0xe5, 0xb5, 0xbd, 0x95, 0xbe, 0x9a, 0x3e, 0x72, 0xa9, 0x61, 0x3d,
  0x72, 0xc4, 0xf0, 0xbd, 0xe3, 0x3a, 0x52, 0x3e, 0xe3, 0x1a, 0x3e, 0xbd,
  0xaf, 0xab, 0x69, 0xbc, 0xd4, 0xdd, 0x49, 0x3e, 0x92, 0xe9, 0x8a, 0x3e,
  0x5e, 0x16, 0x80, 0x3e, 0x34, 0x12, 0x46, 0x3e, 0x63, 0x35, 0xfa, 0x3b,
  0x91, 0x5d, 0x9b, 0xbd, 0x9b, 0x91, 0xcf, 0xbe, 0x8a, 0xa3, 0x8c, 0xbe,
  0x5c, 0x65, 0xf3, 0xbd, 0x95, 0x11, 0x18, 0xbe, 0x96, 0xb6, 0x2f, 0xbe,
  0x4f, 0x7a, 0x82, 0x3c, 0xc1, 0x47, 0x72, 0xbd, 0x82, 0x13, 0x89, 0xbd,
  0xef, 0x4d, 0x91, 0xbd, 0x39, 0x3e, 0x5e, 0xbd, 0x2d, 0x55, 0x05, 0xbf,
  0x89, 0x68, 0x0a, 0xbe, 0xe2, 0x43, 0xa8, 0xbd, 0x81, 0x02, 0x89, 0x3e,
  0xef, 0x6b, 0x31, 0xbe, 0xb5, 0xa0, 0x56, 0x3e, 0x56, 0x7c, 0xa4, 0x3e,
  0xaa, 0xbc, 0xa0, 0x3e, 0xe2, 0xe0, 0xff, 0xff, 0x10, 0x00, 0x00, 0x00,
  0x07, 0x00, 0x00, 0x00, 0x1c, 0x00, 0x00, 0x00, 0x38, 0x00, 0x00, 0x00,
  0x04, 0x00, 0x00, 0x00, 0x08, 0x00, 0x00, 0x00, 0x04, 0x00, 0x00, 0x00,
  0x03, 0x00, 0x00, 0x00, 0x01, 0x00, 0x00, 0x00, 0x18, 0x00, 0x00, 0x00,
  0x73, 0x65, 0x71, 0x75, 0x65, 0x6e, 0x74, 0x69, 0x61, 0x6c, 0x2f, 0x63,
  0x6f, 0x6e, 0x76, 0x32, 0x64, 0x2f, 0x43, 0x6f, 0x6e, 0x76, 0x32, 0x44,
  0x00, 0x00, 0x00, 0x00, 0xdc, 0xe0, 0xff, 0xff, 0xd2, 0xe1, 0xff, 0xff,
  0x04, 0x00, 0x00, 0x00, 0xc0, 0x00, 0x00, 0x00, 0xc9, 0x04, 0x45, 0x3f,
  0xab, 0xb1, 0x0b, 0xbe, 0xce, 0x0a, 0xd1, 0xbe, 0x06, 0x27, 0xde, 0x3e,
  0x72, 0xf4, 0xeb, 0x3e, 0x0e, 0x0e, 0x43, 0x3f, 0x17, 0xb4, 0x27, 0x3d,
  0x14, 0x54, 0x86, 0xbf, 0x5f, 0x9f, 0xaf, 0xbd, 0x64, 0x83, 0xc2, 0xbd,
  0xcd, 0x96, 0x42, 0x3d, 0x09, 0x50, 0x8a, 0x3d, 0x49, 0x05, 0xdb, 0xbd,
  0x5b, 0x38, 0x09, 0x3f, 0xe5, 0x06, 0x0a, 0xbf, 0x47, 0x36, 0x02, 0xbf,
  0xd8, 0xe6, 0xc3, 0xbe, 0x96, 0x5a, 0x0a, 0x3e, 0xb1, 0x52, 0x75, 0xba,
  0x4e, 0x31, 0xd0, 0xbe, 0xd2, 0xef, 0xcc, 0xbe, 0x61, 0x2e, 0xe3, 0xbe,
  0x14, 0xc9, 0x91, 0x3e, 0xde, 0x8c, 0x96, 0xbe, 0xd3, 0xae, 0x16, 0xbf,
  0x20, 0x06, 0x86, 0xbe, 0x9e, 0x40, 0x52, 0x3e, 0xd7, 0xc3, 0x5f, 0xbe,
  0xf7, 0xf5, 0xb3, 0x3e, 0x21, 0xda, 0xce, 0xbe, 0xe4, 0x6e, 0x3a, 0xbe,
  0x34, 0xb2, 0x81, 0xbd, 0xbb, 0x39, 0xf5, 0xbe, 0xf8, 0x4b, 0x52, 0x3e,
  0xea, 0x40, 0x47, 0x3d, 0x5a, 0x35, 0xf7, 0xbe, 0x02, 0x23, 0xee, 0xbe,
  0x23, 0x08, 0x96, 0xbe, 0xed, 0x4e, 0x2e, 0x3e, 0xbb, 0xb0, 0xb0, 0xbe,
  0xa4, 0x17, 0x71, 0xbf, 0xdd, 0xad, 0xc7, 0x3d, 0x21, 0xcb, 0x80, 0x3e,
  0xc5, 0xf6, 0x6f, 0xbe, 0x58, 0x4c, 0xa2, 0x3e, 0xdf, 0xbb, 0xb8, 0xbe,
  0xa9, 0x0f, 0xa9, 0x3d, 0xf9, 0x0d, 0x1c, 0x3e, 0xfa, 0xe1, 0xff, 0xff,
  0x10, 0x00, 0x00, 0x00, 0x06, 0x00, 0x00, 0x00, 0x14, 0x00, 0x00, 0x00,
  0x30, 0x00, 0x00, 0x00, 0x02, 0x00, 0x00, 0x00, 0x03, 0x00, 0x00, 0x00,
  0x10, 0x00, 0x00, 0x00, 0x19, 0x00, 0x00, 0x00, 0x73, 0x65, 0x71, 0x75,
  0x65, 0x6e, 0x74, 0x69, 0x61, 0x6c, 0x2f, 0x64, 0x65, 0x6e, 0x73, 0x65,
  0x5f, 0x31, 0x2f, 0x4d, 0x61, 0x74, 0x4d, 0x75, 0x6c, 0x00, 0x00, 0x00,
  0xec, 0xe1, 0xff, 0xff, 0xe2, 0xe2, 0xff, 0xff, 0x04, 0x00, 0x00, 0x00,
  0x00, 0x1c, 0x00, 0x00, 0x6a, 0xdd, 0x2c, 0xbe, 0x01, 0x8f, 0xbf, 0xbd,
  0xa4, 0x59, 0x16, 0xbe, 0xe5, 0xe4, 0xdb, 0x3e, 0x85, 0x0f, 0xf8, 0xbc,
  0xbc, 0x07, 0x9f, 0xbd, 0x68, 0x28, 0xbd, 0xba, 0x86, 0xa1, 0x7f, 0x3e,
  0xa4, 0xf5, 0x05, 0xbd, 0xd6, 0xe8, 0x3b, 0xbd, 0x20, 0x9a, 0x94, 0x3d,
  0x93, 0x34, 0x4e, 0xbd, 0xaf, 0x08, 0x04, 0x3e, 0x4e, 0xa5, 0x10, 0xbe,
  0xe6, 0xf7, 0x25, 0xbd, 0x51, 0xf5, 0x14, 0xbe, 0x97, 0xd8, 0x84, 0xbd,
  0x38, 0x31, 0x84, 0x3d, 0xe2, 0x6e, 0x65, 0x3b, 0x06, 0x6c, 0xd4, 0x3e,
  0x20, 0x21, 0x87, 0x3d, 0x08, 0x20, 0xac, 0xbd, 0xac, 0x84, 0xf8, 0xbd,
  0x83, 0xa6, 0x7f, 0x3e, 0xb8, 0x61, 0x8a, 0xbc, 0xd4, 0x94, 0x78, 0xbe,
  0x45, 0x88, 0x6a, 0xbe, 0xb8, 0x17, 0xa4, 0xbd, 0xed, 0x65, 0x88, 0xbc,
  0x9d, 0xb4, 0xca, 0xbc, 0xc2, 0x50, 0xdb, 0xbd, 0xf8, 0x5d, 0xbf, 0xbd,
  0xd9, 0xb5, 0xab, 0xbd, 0x95, 0xc8, 0xd1, 0x3c, 0x7b, 0xfa, 0x2a, 0xbd,
  0x0f, 0xe2, 0x16, 0x3f, 0x12, 0x03, 0x65, 0xbb, 0x11, 0xda, 0x0d, 0xbd,
  0x7c, 0x34, 0x05, 0xbe, 0xde, 0x9a, 0x42, 0x3e, 0xbc, 0xe4, 0x47, 0xbe,
  0x5e, 0xa3, 0x6f, 0xbe, 0x47, 0x3c, 0xea, 0x3d, 0xfc, 0x53, 0x88, 0xbc,
  0xba, 0x06, 0x26, 0xbe, 0x6c, 0x4a, 0x06, 0x3e, 0x1e, 0xba, 0x02, 0x3e,
  0x16, 0x4c, 0xe5, 0x3b, 0x62, 0x95, 0x78, 0xbb, 0x24, 0x84, 0xda, 0xbd,
  0x88, 0x1c, 0x41, 0xbe, 0x89, 0x35, 0xe7, 0x3e, 0x12, 0x7e, 0x8c, 0x3d,
  0xd3, 0xfe, 0x8b, 0x3d, 0xdc, 0x49, 0x5a, 0xbe, 0x92, 0x12, 0x8e, 0x3e,
  0x5e, 0xc2, 0x29, 0x3e, 0xb0, 0xe5, 0x1a, 0xbd, 0x8f, 0x19, 0x32, 0xbc,
  0x3a, 0xd1, 0xca, 0x3c, 0xe1, 0x16, 0x78, 0xbe, 0x18, 0x13, 0x1e, 0xbe,
  0xbb, 0xe5, 0xdd, 0x3d, 0xa7, 0x03, 0x89, 0x3c, 0x82, 0x83, 0xe7, 0xbc,
  0x63, 0x4d, 0x48, 0xbe, 0x62, 0xfc, 0x59, 0xbd, 0x90, 0x63, 0x53, 0x3e,
  0x49, 0x47, 0xa5, 0xbe, 0x9a, 0x0f, 0xaa, 0xbc, 0xa6, 0x27, 0xeb, 0x3c,
  0x76, 0x3a, 0x6b, 0x3e, 0x8e, 0xa1, 0x2f, 0xbe, 0xa5, 0x9e, 0x14, 0xbe,
  0xaa, 0xb1, 0x78, 0x3c, 0x74, 0xaf, 0x19, 0xbe, 0xe1, 0xfa, 0xef, 0x3d,
  0x2f, 0x86, 0x27, 0xbe, 0x9b, 0x1b, 0xb4, 0xbc, 0xe4, 0x6d, 0x12, 0xbe,
  0xce, 0x3e, 0x9d, 0xbd, 0xaf, 0xaf, 0xbc, 0xbc, 0xb3, 0xee, 0x04, 0x3d,
  0x6d, 0x50, 0x0c, 0x3f, 0xd8, 0x80, 0x8c, 0xbd, 0x60, 0xa1, 0x15, 0xbe,
  0x77, 0x66, 0x52, 0xbe, 0xfd, 0xba, 0x04, 0x3e, 0x81, 0xdb, 0x02, 0x3e,
  0x89, 0x08, 0x11, 0xbc, 0x72, 0x3f, 0x3b, 0xbc, 0x9e, 0x8a, 0x04, 0xbd,
  0xed, 0xc9, 0x75, 0x3d, 0x70, 0xae, 0x04, 0x3d, 0x89, 0x6a, 0x15, 0x3d,
  0x35, 0x36, 0x3e, 0xbe, 0xe0, 0xb1, 0x6e, 0xbe, 0x97, 0x4c, 0x10, 0xbe,
  0x9f, 0xda, 0x3e, 0xbe, 0xfb, 0x25, 0xb7, 0x3e, 0x72, 0x00, 0xf3, 0xbd,
  0xf1, 0xa7, 0xf4, 0xbd, 0x78, 0xa1, 0x60, 0xbe, 0x0d, 0x5b, 0xab, 0x3d,
  0x14, 0xc0, 0x8a, 0xbe, 0x66, 0x47, 0x0a, 0xbc, 0x41, 0x3d, 0x5d, 0xbe,
  0xca, 0x2a, 0x55, 0xbe, 0x29, 0xb7, 0x32, 0xbe, 0xb1, 0x52, 0xdd, 0xbd,
  0x63, 0x10, 0x46, 0xbe, 0x44, 0x12, 0x64, 0xbe, 0x0e, 0x3d, 0x1e, 0x3e,
  0x3d, 0x19, 0x8b, 0xbe, 0x3d, 0xf8, 0x28, 0xbf, 0x7b, 0x7d, 0xd3, 0x3e,
  0x1b, 0x8d, 0x23, 0x3e, 0x27, 0xbd, 0xc0, 0x3e, 0xce, 0x9c, 0x84, 0x3c,
  0xb3, 0xb3, 0xf6, 0xbe, 0xba, 0x02, 0x0b, 0xbf, 0x91, 0xb0, 0x0e, 0x3d,
  0x98, 0x38, 0x6d, 0xbd, 0x35, 0x5f, 0x58, 0xbf, 0x35, 0x25, 0x56, 0xbd,
  0x2d, 0x0c, 0x5f, 0x3e, 0x72, 0x86, 0x1e, 0xbf, 0xe0, 0xf6, 0x51, 0xbc,
  0x7b, 0xd9, 0x7c, 0xbb, 0x95, 0xfc, 0xf3, 0xbd, 0x68, 0xfa, 0x41, 0x3e,
  0x2d, 0x2b, 0x3b, 0x3e, 0x39, 0x78, 0x21, 0x3e, 0xe5, 0x40, 0xe5, 0x3e,
  0x4f, 0xaa, 0x6b, 0xbc, 0x13, 0x3a, 0x4c, 0x3e, 0x3d, 0xca, 0xa3, 0x3b,
  0xa3, 0xb8, 0x01, 0xbd, 0x9d, 0xfc, 0xe8, 0xbd, 0x40, 0x7f, 0x81, 0x3e,
  0xa8, 0xa2, 0x73, 0xbc, 0xbe, 0xf3, 0x43, 0xbe, 0x55, 0x37, 0x47, 0xbd,
  0xbc, 0x5a, 0xb0, 0x3d, 0x41, 0xdf, 0x02, 0x3f, 0x2f, 0xa1, 0xfe, 0x3e,
  0xe5, 0x3a, 0xe2, 0x3e, 0x5d, 0x87, 0x35, 0x3e, 0x86, 0x29, 0x9c, 0x3e,
  0x78, 0xb3, 0x88, 0x3e, 0xf2, 0xf3, 0xce, 0x3d, 0xc7, 0xaf, 0xbf, 0x3e,
  0xc1, 0xc6, 0xf9, 0x3d, 0xf2, 0x98, 0x3b, 0x3d, 0x0c, 0xf9, 0x96, 0x3d,
  0x21, 0xbc, 0xf2, 0x3e, 0x16, 0x71, 0x8b, 0x3d, 0x04, 0xda, 0x05, 0x3e,
  0x28, 0xb4, 0x8f, 0x3e, 0xb5, 0x30, 0xa5, 0x3d, 0x24, 0xcd, 0xb5, 0x3e,
  0x6a, 0x80, 0xfa, 0x3e, 0x1a, 0x9c, 0x01, 0x3f, 0x8c, 0xae, 0x85, 0xbd,
  0x3a, 0x50, 0xb8, 0x3d, 0x2f, 0x45, 0xe3, 0xbb, 0xaf, 0xd7, 0x61, 0x3e,
  0x96, 0x7a, 0x80, 0x3e, 0xca, 0xcf, 0x00, 0x3f, 0xfc, 0x90, 0x93, 0x3d,
  0x03, 0xa7, 0xf0, 0x3d, 0xcf, 0x73, 0xc9, 0x3e, 0xf9, 0x95, 0x81, 0x3d,
  0x75, 0x95, 0x8c, 0x3e, 0xf9, 0x5b, 0x0e, 0x3f, 0x9d, 0xf8, 0x30, 0x3e,
  0xcf, 0x9a, 0x76, 0x3e, 0x95, 0x97, 0x94, 0x3d, 0xa2, 0x48, 0x25, 0x39,
  0x1d, 0x0c, 0x2d, 0xbe, 0x03, 0x4a, 0x65, 0xbc, 0x2f, 0x1a, 0x7f, 0x3e,
  0x0a, 0xc2, 0x99, 0x3b, 0x9f, 0x97, 0x36, 0x3c, 0x46, 0xa1, 0x71, 0xbe,
  0x74, 0x45, 0x90, 0x3c, 0xbb, 0x78, 0x32, 0xbd, 0x1c, 0x51, 0x0d, 0xbe,
  0xfc, 0xa5, 0xa2, 0x3d, 0x8b, 0x08, 0x1b, 0x3e, 0xff, 0x2d, 0x32, 0xbc,
  0xd0, 0x87, 0x13, 0x3d, 0xf5, 0x99, 0xa8, 0x3d, 0x48, 0x13, 0xbb, 0xbd,
  0x2f, 0x39, 0x3f, 0xbe, 0x75, 0x41, 0x98, 0xbd, 0x4a, 0x85, 0x0f, 0xbe,
  0x75, 0x93, 0xff, 0x3d, 0x69, 0x39, 0x6c, 0xbd, 0x18, 0xb4, 0x5f, 0xbd,
  0xc0, 0x2c, 0x14, 0xbe, 0xa9, 0xfb, 0x61, 0x3d, 0x71, 0x8c, 0x1c, 0xbd,
  0xea, 0x73, 0x22, 0xbe, 0xe7, 0x14, 0xf0, 0xbb, 0xd4, 0x8c, 0x40, 0xbd,
  0x8d, 0x93, 0x82, 0xbd, 0xa3, 0x4e, 0x1c, 0xbd, 0x65, 0xa8, 0x46, 0xbc,
  0xa0, 0x3c, 0x2b, 0xbe, 0x0a, 0x1d, 0x5f, 0xbe, 0x30, 0x67, 0x48, 0xbc,
  0x71, 0xe8, 0xa8, 0xbb, 0x1a, 0x50, 0x10, 0x3d, 0x7b, 0x99, 0xb8, 0xbb,
  0x38, 0x4c, 0x51, 0xbe, 0xa0, 0xd1, 0x10, 0xbe, 0x1e, 0x3f, 0xe6, 0x3b,
  0x4a, 0xe2, 0xaa, 0xbd, 0x09, 0x35, 0xac, 0xbd, 0xf5, 0x06, 0x68, 0xbe,
  0xa2, 0x36, 0xd2, 0x3d, 0x28, 0x8a, 0xa2, 0xbe, 0xd7, 0x37, 0x4c, 0xbd,
  0xcd, 0xd6, 0x05, 0x3e, 0x6d, 0xa3, 0x7b, 0xbe, 0x27, 0xc2, 0xc7, 0xbe,
  0x91, 0x8a, 0x03, 0x3f, 0x1a, 0x3e, 0xd3, 0x3d, 0xd4, 0x32, 0xee, 0x3e,
  0xe9, 0xa7, 0xad, 0x3b, 0x60, 0xa6, 0xde, 0xbe, 0x41, 0x30, 0xb6, 0xbe,
  0x6d, 0xad, 0x1b, 0xbd, 0xf0, 0x88, 0xc5, 0xbd, 0x4e, 0x0c, 0x0e, 0xbf,
  0x08, 0x4e, 0x49, 0xbd, 0x15, 0xd7, 0xb2, 0x3d, 0x4f, 0x56, 0xaa, 0xbe,
  0x19, 0x35, 0x24, 0x3d, 0x0a, 0xb1, 0x19, 0x3e, 0xa7, 0x04, 0xca, 0xbc,
  0xe0, 0x1c, 0x49, 0x3e, 0xdf, 0x48, 0x4a, 0xbd, 0xe9, 0xab, 0xac, 0xbb,
  0x76, 0xd7, 0xc0, 0x3e, 0x3c, 0x5a, 0xb6, 0x3d, 0xc2, 0xb9, 0x3b, 0x3e,
  0x55, 0xbb, 0xf6, 0x3d, 0x2e, 0x02, 0x64, 0x3d, 0x4a, 0x5f, 0x9d, 0xbd,
  0xf9, 0x14, 0x65, 0x3d, 0xef, 0x13, 0x00, 0xbe, 0x06, 0xeb, 0x95, 0xbd,
  0x29, 0x87, 0x53, 0xbe, 0xbc, 0x78, 0xb3, 0xbd, 0x8c, 0x30, 0x00, 0x3f,
  0x44, 0x80, 0xef, 0x3e, 0x50, 0xcc, 0x40, 0x3f, 0x4c, 0xa5, 0x91, 0x3e,
  0xc5, 0x92, 0x53, 0x3e, 0x7c, 0x4e, 0x8a, 0x3e, 0x04, 0x37, 0xd0, 0x3c,
  0x29, 0xf7, 0x7f, 0x3e, 0x1b, 0x7d, 0x6c, 0x3e, 0xb8, 0x16, 0x00, 0x3e,
  0xfb, 0xa1, 0xa9, 0x3d, 0xdd, 0xf2, 0x06, 0x3f, 0x0a, 0x4c, 0xed, 0xbd,
  0x25, 0x62, 0x8e, 0x3e, 0x50, 0x96, 0x45, 0xbc, 0xb1, 0xb6, 0x5a, 0x3d,
  0x85, 0x97, 0x9c, 0x3d, 0x8a, 0xc2, 0x93, 0x3e, 0xa4, 0xca, 0xba, 0x3e,
  0x07, 0x30, 0xb7, 0x3d, 0xeb, 0x52, 0xa7, 0x3e, 0x2f, 0xf0, 0xc4, 0x3d,
  0x1c, 0xe3, 0xda, 0xbb, 0x00, 0xfd, 0x0a, 0x3f, 0xd9, 0x1f, 0x05, 0x3e,
  0x3f, 0xf6, 0xa6, 0x3d, 0xb2, 0x4f, 0xb6, 0x3e, 0xa2, 0xaa, 0xef, 0x3e,
  0xf4, 0x06, 0x28, 0x3e, 0x49, 0x0e, 0x2e, 0x3e, 0x8d, 0x1f, 0x99, 0x3e,
  0x9f, 0xab, 0x39, 0x3e, 0xf4, 0xab, 0x0f, 0x3e, 0xe2, 0x66, 0xae, 0x3c,
  0x26, 0xbc, 0xdd, 0xbd, 0xf8, 0xe3, 0x1c, 0xbe, 0x5e, 0xe9, 0x69, 0xbe,
  0xdf, 0xc0, 0xb3, 0x3e, 0xb7, 0xbe, 0x4b, 0x3d, 0xd0, 0xb9, 0xcb, 0xbb,
  0xd8, 0xb1, 0xc4, 0xbe, 0x17, 0xd0, 0xf5, 0x3d, 0x70, 0xe1, 0x17, 0xbd,
  0x2f, 0x99, 0x2b, 0x3b, 0xeb, 0x5d, 0x18, 0x3e, 0x8b, 0x54, 0x9c, 0x3e,
  0x1b, 0x31, 0x57, 0x3d, 0x84, 0x81, 0x44, 0x3e, 0xff, 0xc7, 0x5a, 0x3e,
  0x11, 0x63, 0xa2, 0xbd, 0xe9, 0xd0, 0xf3, 0xbd, 0x51, 0xb7, 0xd3, 0x3d,
  0x41, 0x3d, 0xaa, 0xbe, 0x76, 0x5f, 0x2a, 0x3e, 0x11, 0x5e, 0xbb, 0x3c,
  0xb6, 0x01, 0x51, 0xbd, 0x7f, 0x47, 0x50, 0xbe, 0x84, 0x82, 0x0e, 0xbd,
  0x26, 0x2e, 0x82, 0xbd, 0xd8, 0x65, 0x23, 0xbe, 0x1c, 0x6c, 0xd7, 0x3c,
  0xb8, 0x73, 0xbf, 0xbd, 0x2e, 0xbc, 0x0e, 0xbe, 0xe2, 0x89, 0x3c, 0xbd,
  0xa9, 0xbf, 0x15, 0xbd, 0xea, 0x84, 0xa3, 0xbd, 0x58, 0xdd, 0xbc, 0xbd,
  0x97, 0xfb, 0x9d, 0x3c, 0xdb, 0xc1, 0xce, 0x3c, 0x65, 0x52, 0x25, 0x3d,
  0x3c, 0x13, 0xe1, 0x3c, 0x31, 0x02, 0x07, 0xbe, 0xe0, 0xbd, 0x88, 0xbe,
  0x6b, 0x0e, 0xa2, 0x3c, 0xfb, 0xcc, 0x36, 0xbe, 0xd5, 0xba, 0xfc, 0xbd,
  0x19, 0xdc, 0x18, 0xbe, 0x69, 0x7f, 0x3f, 0xbd, 0xc0, 0xcb, 0x6b, 0xbe,
  0x8e, 0x08, 0xda, 0xbd, 0xfa, 0x0a, 0x80, 0xbe, 0xb4, 0xec, 0x39, 0xbe,
  0x64, 0x63, 0x4f, 0xbe, 0xdb, 0x63, 0xb4, 0x3e, 0x84, 0x4d, 0x0b, 0xbd,
  0x5b, 0xa3, 0x99, 0x3d, 0x18, 0x70, 0xec, 0xbc, 0x9c, 0xba, 0xa4, 0x3e,
  0xbf, 0x44, 0xe5, 0xbd, 0x93, 0x71, 0x3b, 0xbe, 0x6a, 0x5d, 0x7f, 0xbe,
  0xba, 0xc0, 0xc9, 0xbd, 0xa1, 0x5c, 0x4b, 0xbe, 0xe0, 0x4c, 0x0c, 0xbd,
  0x5b, 0xd8, 0xff, 0x3d, 0xe8, 0x03, 0x40, 0xbe, 0x6d, 0x2d, 0xe6, 0xbd,
  0x6a, 0x31, 0xba, 0x3d, 0x17, 0x4a, 0xc4, 0x3d, 0xa9, 0x15, 0x03, 0x3f,
  0x09, 0x3b, 0xc5, 0x3d, 0x51, 0xb7, 0x25, 0x3e, 0x83, 0x78, 0x0b, 0xbe,
  0xb9, 0x5c, 0xbe, 0x3e, 0xa1, 0xce, 0x4f, 0x3d, 0x1e, 0x60, 0x33, 0xbe,
  0x7c, 0x1c, 0xd9, 0x3d, 0x92, 0x12, 0x62, 0xbd, 0xc3, 0x09, 0x51, 0xbe,
  0x2e, 0x27, 0x54, 0xbe, 0xe3, 0x87, 0xc9, 0x3b, 0xb0, 0x5c, 0xb9, 0x3c,
  0x67, 0xb5, 0x13, 0x3e, 0x25, 0x6b, 0x90, 0xba, 0x21, 0xc0, 0xd4, 0xbd,
  0x3a, 0x8a, 0xa2, 0x3e, 0xf3, 0xf4, 0x0f, 0xbe, 0x22, 0x09, 0xd0, 0x3e,
  0x66, 0x40, 0x06, 0xbc, 0x9b, 0xee, 0x7a, 0x3e, 0xaf, 0x39, 0xcc, 0xbd,
  0xde, 0x1c, 0x37, 0xbe, 0xf1, 0xe8, 0x55, 0xbc, 0x7f, 0xb6, 0x70, 0xbe,
  0x5c, 0x38, 0xdf, 0xbd, 0x2d, 0x0f, 0xcb, 0x3d, 0x91, 0x32, 0xac, 0xbd,
  0x5b, 0xec, 0xef, 0xbd, 0xdd, 0x15, 0xd1, 0x3d, 0x5a, 0x92, 0xa2, 0x3c,
  0x0b, 0xc0, 0xa5, 0xbc, 0xec, 0xcc, 0x96, 0x3e, 0xfd, 0xa7, 0x06, 0xbe,
  0x2c, 0x2e, 0x8e, 0xbc, 0xf0, 0x6c, 0xad, 0x3d, 0x0a, 0xfa, 0x0d, 0x3f,
  0x81, 0xca, 0x60, 0xbe, 0xcb, 0x72, 0xab, 0xbe, 0x52, 0xcf, 0xe3, 0xbd,
  0xb4, 0x9d, 0x56, 0xbe, 0xb5, 0x99, 0x9e, 0xbe, 0xb3, 0x6f, 0x51, 0xbe,
  0x44, 0xf0, 0xca, 0xbd, 0x69, 0xc3, 0xb6, 0x3c, 0xd8, 0x79, 0x3d, 0xbd,
  0x35, 0x34, 0x63, 0xbc, 0x7d, 0x15, 0xfb, 0xbd, 0x82, 0x13, 0xa0, 0x3e,
  0xb1, 0x8f, 0x33, 0xbe, 0x61, 0x18, 0xb6, 0x3e, 0x81, 0xae, 0x24, 0xbe,
  0xfb, 0x1e, 0xfb, 0x3e, 0x7b, 0x38, 0xc5, 0xbd, 0xe4, 0x1f, 0xe7, 0xbd,
  0xf5, 0xe2, 0x35, 0xbe, 0xc2, 0x63, 0x7e, 0xbe, 0xf7, 0x19, 0xea, 0xbd,
  0x1d, 0xb6, 0x8d, 0xbd, 0xb7, 0xfb, 0x31, 0x3e, 0x87, 0xce, 0xd6, 0xbc,
  0xb1, 0xcd, 0xcb, 0xbd, 0x9e, 0x6e, 0xc2, 0xbd, 0xdf, 0x97, 0xaa, 0x3d,
  0x65, 0x90, 0xc4, 0x3e, 0x79, 0xc4, 0x00, 0x3e, 0x68, 0xd3, 0x78, 0x3e,
  0xb9, 0xc9, 0x76, 0xbe, 0xc2, 0x31, 0xb3, 0x3e, 0x07, 0x83, 0x0f, 0xbe,
  0x65, 0x51, 0x67, 0x3d, 0xb1, 0x80, 0x0d, 0xbe, 0x13, 0x77, 0xdc, 0x3d,
  0x34, 0xe9, 0x8f, 0x3d, 0xf5, 0x59, 0xf9, 0xbd, 0xa2, 0x80, 0x23, 0xbe,
  0x0d, 0xe1, 0x8f, 0xbe, 0x89, 0xc0, 0x18, 0xbe, 0x46, 0x5e, 0x9b, 0x3b,
  0x58, 0xf5, 0x5e, 0xbe, 0xa1, 0xce, 0x86, 0x3e, 0x09, 0x32, 0x27, 0x3e,
  0xd1, 0x02, 0xb7, 0x3d, 0x1f, 0x48, 0xbf, 0xbd, 0xde, 0xd0, 0x30, 0x3e,
  0x4d, 0x44, 0xb1, 0xbc, 0x50, 0x23, 0x04, 0xbe, 0xf5, 0x34, 0xe8, 0x3b,
  0x60, 0x9f, 0xc0, 0x3d, 0x26, 0x28, 0x8c, 0x3a, 0x14, 0xea, 0x2d, 0xbe,
  0x68, 0xb4, 0x6c, 0xbe, 0x2b, 0xc9, 0x75, 0xbe, 0x85, 0xe9, 0xcd, 0x3c,
  0xcc, 0xd7, 0x29, 0xbd, 0x17, 0xab, 0x37, 0xbe, 0xc3, 0x38, 0xa2, 0x3e,
  0xf6, 0x04, 0x02, 0x3d, 0x48, 0xb1, 0x88, 0x3e, 0x47, 0x18, 0x95, 0x3c,
  0xbd, 0xe1, 0xc6, 0x3d, 0xb9, 0x66, 0x67, 0xbe, 0xd3, 0x03, 0x39, 0xbe,
  0xfa, 0x21, 0x43, 0xbe, 0x02, 0xbc, 0x27, 0x3d, 0x41, 0x52, 0x4f, 0xbd,
  0x19, 0x0c, 0xda, 0xbd, 0xb0, 0x1c, 0x09, 0xbc, 0x53, 0x4f, 0x8c, 0xbe,
  0x2b, 0x58, 0x0b, 0x3e, 0xc1, 0xc0, 0x89, 0x3d, 0x81, 0xd8, 0x10, 0x3e,
  0x32, 0x75, 0xb5, 0x3e, 0x29, 0xde, 0xa5, 0xbd, 0x87, 0xf4, 0x10, 0x3e,
  0x0b, 0x4d, 0x74, 0xbe, 0x71, 0x59, 0x79, 0x3e, 0x9a, 0xf0, 0xa8, 0x3d,
  0x40, 0x8f, 0xfa, 0xbd, 0x2c, 0x81, 0x87, 0xbe, 0x9b, 0x23, 0xee, 0x3d,
  0xd8, 0x19, 0x4c, 0xbe, 0x8a, 0x1e, 0x93, 0xbe, 0x6b, 0xce, 0xac, 0x3d,
  0x5f, 0x16, 0x8e, 0xbc, 0x0c, 0x9c, 0x6b, 0x3e, 0x70, 0x79, 0x89, 0xbe,
  0x91, 0x32, 0x34, 0xbe, 0x90, 0x17, 0x06, 0x3f, 0xda, 0xb4, 0x48, 0x3d,
  0x8f, 0xb2, 0x5c, 0x3e, 0x62, 0x38, 0x31, 0xbe, 0x94, 0xa0, 0x48, 0x3d,
  0xf8, 0xfd, 0xc6, 0x3c, 0x5e, 0xc2, 0x42, 0x3b, 0x26, 0xec, 0xe8, 0xbd,
  0xef, 0xfc, 0x3a, 0xbd, 0x53, 0x8f, 0x02, 0xbe, 0x23, 0x99, 0x35, 0xbd,
  0x42, 0xf8, 0x11, 0x3e, 0xf9, 0xad, 0x3b, 0xbc, 0xef, 0x96, 0xf1, 0x3d,
  0xa6, 0xa3, 0xd1, 0xbd, 0x6a, 0x87, 0x3e, 0x3e, 0xe6, 0xda, 0xda, 0x3e,
  0x01, 0xfa, 0x04, 0xbd, 0xed, 0xa4, 0xaa, 0x3e, 0x10, 0x15, 0x5c, 0xbe,
  0xc8, 0x50, 0xd4, 0x3e, 0xa6, 0xf8, 0xe5, 0xbd, 0xcd, 0x53, 0x02, 0x3d,
  0x82, 0x4d, 0x99, 0xbd, 0x57, 0x65, 0x7c, 0xbd, 0xac, 0x17, 0x58, 0xbe,
  0x93, 0x2c, 0x2a, 0x3e, 0x66, 0xb9, 0x99, 0x3d, 0xb7, 0xa5, 0x89, 0xbd,
  0x8b, 0xd3, 0xef, 0xbd, 0xff, 0x8d, 0x02, 0xbe, 0xd8, 0xbe, 0x39, 0xbe,
  0x68, 0x79, 0x0b, 0x3f, 0x0e, 0x17, 0x2a, 0xbe, 0x7d, 0x76, 0x61, 0x3e,
  0x86, 0xc9, 0x71, 0xbd, 0x5f, 0xfa, 0xa0, 0x3e, 0x38, 0xd2, 0x3b, 0xbe,
  0xcf, 0xe8, 0x26, 0xbe, 0x75, 0xd5, 0x41, 0xbe, 0x1e, 0x15, 0xd9, 0xbd,
  0x90, 0x8d, 0x98, 0x3d, 0x2e, 0x65, 0x79, 0x3e, 0xc6, 0x91, 0xfc, 0xbc,
  0xc2, 0x74, 0x95, 0xbd, 0x20, 0x21, 0x5d, 0x3e, 0x69, 0x7c, 0xbc, 0xbd,
  0x3b, 0x88, 0x3b, 0x3d, 0xc7, 0x30, 0xbc, 0x3e, 0x2f, 0x9a, 0x94, 0xbe,
  0x8e, 0x0d, 0x56, 0x3d, 0x8d, 0x3b, 0x6b, 0xbe, 0x01, 0x6f, 0x8e, 0x3e,
  0x55, 0x8a, 0x0d, 0xbe, 0x25, 0xb4, 0x1a, 0x3d, 0xb4, 0xee, 0x77, 0xbe,
  0x5d, 0xf0, 0x46, 0xbd, 0x8b, 0x9b, 0x08, 0xbd, 0x3c, 0x5a, 0x40, 0x3e,
  0x5f, 0xbf, 0x57, 0xbd, 0x46, 0xfd, 0x91, 0xbd, 0xcb, 0x25, 0xc7, 0xbc,
  0xd2, 0x29, 0xcd, 0xbd, 0x09, 0xd1, 0xa2, 0x3c, 0x43, 0x16, 0xcb, 0x3e,
  0x4d, 0xa8, 0x68, 0x3d, 0xac, 0x4b, 0xf0, 0x3e, 0x0e, 0xca, 0xc3, 0xbd,
  0xa8, 0x64, 0x21, 0x3e, 0xaa, 0xc4, 0x65, 0x3d, 0x47, 0xe3, 0xf8, 0xbd,
  0x7a, 0x33, 0x24, 0xbe, 0xac, 0xdb, 0x1f, 0xbe, 0xad, 0xa3, 0x64, 0xbe,
  0x5b, 0xd2, 0x1e, 0x3e, 0x24, 0xa8, 0x63, 0xbd, 0xba, 0x68, 0xcf, 0xbd,
  0x9d, 0xec, 0x4f, 0xbc, 0x42, 0xa9, 0x5e, 0xbe, 0x6c, 0x5b, 0xc6, 0x3d,
  0x6d, 0xb5, 0xdc, 0x3e, 0x5d, 0x63, 0x95, 0xbd, 0xda, 0x8e, 0xe8, 0xbd,
  0xb6, 0xbf, 0xa1, 0xbc, 0x3d, 0x43, 0x7a, 0x3e, 0xa3, 0xc2, 0xae, 0xbc,
  0x3c, 0x47, 0x27, 0xbe, 0x05, 0x95, 0x91, 0xbd, 0x41, 0x27, 0x16, 0xbe,
  0x27, 0xd2, 0x15, 0xbd, 0xa6, 0x74, 0x22, 0x3e, 0x90, 0x72, 0xe2, 0xbc,
  0x8d, 0x80, 0xbb, 0xbd, 0xdb, 0xa7, 0x59, 0x3e, 0xfb, 0x77, 0x6b, 0x3b,
  0xcf, 0xd9, 0xca, 0x3d, 0x2f, 0xd6, 0xcd, 0x3e, 0xae, 0x9f, 0x97, 0xbd,
  0xf5, 0x66, 0xa0, 0x3e, 0x86, 0xe3, 0x0e, 0xbe, 0x18, 0x00, 0xb3, 0x3e,
  0x22, 0x98, 0xf0, 0x3d, 0x14, 0x4e, 0x10, 0xbd, 0x92, 0xff, 0x41, 0xbe,
  0x4d, 0x6f, 0x49, 0xbe, 0x95, 0x07, 0xb7, 0xbd, 0x09, 0x1d, 0x5f, 0x3d,
  0x16, 0xf0, 0x44, 0xbe, 0xb3, 0x85, 0x23, 0x3d, 0xc4, 0x72, 0x64, 0x3d,
  0xf1, 0x8c, 0x94, 0x3d, 0x43, 0x7f, 0xc7, 0x3b, 0x58, 0x07, 0x00, 0x3f,
  0x8f, 0xdb, 0x0a, 0xbc, 0x63, 0xf2, 0x08, 0x3e, 0x10, 0x35, 0x8d, 0xbe,
  0xa3, 0x79, 0x61, 0x3e, 0xb0, 0xe9, 0xfe, 0x3d, 0xca, 0x39, 0x31, 0xbe,
  0xab, 0x9c, 0xf4, 0xbd, 0x55, 0xf0, 0xdd, 0xbc, 0x5f, 0x98, 0x01, 0xbd,
  0xf9, 0x87, 0x55, 0x3e, 0x75, 0xa4, 0x29, 0xbe, 0x06, 0x5b, 0x16, 0xbd,
  0x11, 0x92, 0x88, 0x3e, 0xfa, 0x02, 0xe3, 0xbd, 0xef, 0x31, 0x37, 0xbd,
  0x55, 0x77, 0xed, 0x3e, 0x4d, 0xa5, 0x83, 0x3e, 0xd1, 0xa2, 0x9c, 0x3e,
  0x66, 0x2d, 0x8e, 0x3c, 0x15, 0x4a, 0x8c, 0x3e, 0xc0, 0x2d, 0x36, 0x3c,
  0x50, 0x55, 0xad, 0xbe, 0xe8, 0x17, 0x15, 0x3e, 0x33, 0xa1, 0x89, 0xbc,
  0xec, 0x78, 0x43, 0xbd, 0x2c, 0xa1, 0x4d, 0x3e, 0xc2, 0x15, 0x3b, 0x3e,
  0xcd, 0x77, 0x49, 0xbe, 0xee, 0x8b, 0xf0, 0x3d, 0x3c, 0xe1, 0x28, 0xbe,
  0x37, 0xe9, 0xef, 0x3d, 0xad, 0x54, 0xd2, 0x3e, 0xc4, 0xf6, 0x15, 0xbe,
  0x7f, 0x57, 0xa4, 0x3e, 0x00, 0x44, 0xfa, 0xbc, 0xb2, 0x4d, 0xbe, 0x3e,
  0x6a, 0x37, 0xb7, 0x3d, 0xe8, 0xd5, 0xe7, 0xbd, 0x47, 0x05, 0x30, 0xbe,
  0x87, 0x08, 0x09, 0x3e, 0xdd, 0x78, 0x66, 0x3d, 0x9c, 0x23, 0x7e, 0xbd,
  0xe8, 0x1d, 0x4a, 0xbe, 0x83, 0x14, 0xa3, 0xbd, 0x85, 0xbe, 0x05, 0xbd,
  0x92, 0x48, 0x87, 0x3d, 0x16, 0x39, 0xfe, 0x3b, 0x1b, 0xcc, 0xf9, 0x3e,
  0xfb, 0x44, 0x0a, 0xbd, 0xfd, 0xf6, 0x34, 0x3c, 0x88, 0x70, 0x0f, 0xbc,
  0x29, 0xc3, 0x9e, 0x3e, 0x77, 0xcd, 0x83, 0x3d, 0xc6, 0xb6, 0x8c, 0x3a,
  0xfe, 0x0c, 0x7a, 0xbe, 0xbc, 0xfe, 0x17, 0xbe, 0x78, 0xd2, 0x1b, 0xbe,
  0x31, 0xe9, 0x12, 0x3e, 0x01, 0x4a, 0x6a, 0xbe, 0xd3, 0x12, 0x2c, 0xbe,
  0x0a, 0x29, 0x42, 0xbd, 0x1a, 0x99, 0xc2, 0xbc, 0x5a, 0x3d, 0xd7, 0xbd,
  0x4b, 0x74, 0x4b, 0x3e, 0xcf, 0x40, 0x14, 0x3e, 0xf2, 0xee, 0x39, 0x3e,
  0xa2, 0x0d, 0xf4, 0xbd, 0x09, 0xa6, 0x81, 0x3d, 0x50, 0x55, 0xd8, 0xbd,
  0x17, 0x6a, 0x40, 0x3c, 0x97, 0x31, 0x35, 0xbe, 0x72, 0xaf, 0xc8, 0x3d,
  0xc2, 0xb5, 0x69, 0xbe, 0x13, 0x61, 0xc0, 0xbb, 0x71, 0xf2, 0x60, 0xbd,
  0x6b, 0x4c, 0x68, 0xbe, 0x09, 0xc2, 0x07, 0xbf, 0x60, 0x0a, 0xa3, 0xbe,
  0xa5, 0x38, 0x90, 0xbd, 0x86, 0x0a, 0xfa, 0x3d, 0xab, 0xa8, 0x54, 0xbe,
  0xaa, 0xc9, 0x81, 0xbe, 0x50, 0xba, 0x6b, 0xbd, 0x6b, 0xf8, 0xf8, 0xbd,
  0x5f, 0x50, 0xe4, 0xbe, 0xac, 0xbb, 0x91, 0xbd, 0x26, 0x6a, 0xe9, 0xbe,
  0xd4, 0xea, 0x93, 0xbe, 0xaa, 0xef, 0x46, 0xbe, 0xb3, 0x91, 0x9c, 0xbe,
  0x3a, 0xaa, 0xa4, 0xbd, 0x13, 0x94, 0xf8, 0xbd, 0x16, 0x47, 0x21, 0xbf,
  0xe7, 0x46, 0x29, 0xbe, 0x40, 0xf2, 0x7c, 0xbe, 0x53, 0xdf, 0xe3, 0xbd,
  0x41, 0x35, 0x85, 0xbe, 0x1c, 0xcc, 0x44, 0x3c, 0x88, 0xf0, 0x16, 0xbd,
  0x42, 0xde, 0xe1, 0x3c, 0x67, 0xd5, 0x44, 0xbe, 0xd7, 0xc0, 0x84, 0x3c,
  0x6c, 0x1a, 0x91, 0xbe, 0x3c, 0xeb, 0x64, 0xbe, 0xd2, 0x51, 0x3e, 0xbe,
  0x69, 0xf4, 0x64, 0xbe, 0xc5, 0x96, 0x7d, 0xbe, 0xe9, 0xc8, 0x27, 0xbd,
  0x0c, 0xef, 0x11, 0xbf, 0xa9, 0x96, 0x9c, 0xbe, 0x45, 0xed, 0x26, 0x3e,
  0x78, 0x65, 0x03, 0xbe, 0x63, 0xbd, 0xaf, 0xbd, 0xb9, 0xb1, 0x92, 0xbe,
  0x86, 0x2c, 0x87, 0xbd, 0x31, 0x1c, 0x5e, 0xbd, 0xa2, 0x27, 0x5b, 0x3d,
  0x7e, 0x2c, 0x85, 0xbc, 0xce, 0x53, 0x94, 0xbe, 0xcb, 0x6d, 0x70, 0xbd,
  0xbf, 0x73, 0x8c, 0xbe, 0xe2, 0x49, 0x5f, 0xbe, 0x1d, 0xff, 0x4f, 0x3a,
  0x5b, 0xd0, 0x1d, 0xbe, 0x8e, 0x7c, 0x08, 0xbf, 0x9c, 0x6d, 0xe1, 0xbd,
  0x5f, 0x89, 0xbb, 0xbc, 0x7c, 0xcf, 0xcc, 0xbd, 0x1a, 0xca, 0xe3, 0xbc,
  0xf8, 0x8a, 0x5d, 0x3b, 0xf3, 0x63, 0x05, 0xbe, 0x3d, 0x76, 0x81, 0xbe,
  0xb9, 0x71, 0xeb, 0xbd, 0x8b, 0x5e, 0x3f, 0x3c, 0x4e, 0xb4, 0xe9, 0xbe,
  0xff, 0xe0, 0xa0, 0xbe, 0xb6, 0xe5, 0x11, 0xbe, 0x66, 0xf5, 0x45, 0xbe,
  0xdb, 0x9b, 0x90, 0x3c, 0x10, 0x52, 0x4d, 0xbe, 0x24, 0xb6, 0xf0, 0xbe,
  0x1a, 0xf1, 0x41, 0x3e, 0x70, 0xcb, 0xbf, 0x3d, 0xa0, 0x11, 0x8c, 0x3e,
  0xd7, 0xa7, 0x28, 0x3e, 0x4b, 0xa9, 0x2e, 0xbd, 0x3b, 0x7f, 0xa5, 0xbd,
  0x45, 0x2f, 0x1e, 0xbe, 0x24, 0x96, 0xb0, 0x3e, 0x26, 0x9e, 0x02, 0xbd,
  0x0e, 0x59, 0x5d, 0xbd, 0x49, 0xf9, 0xe3, 0x3d, 0xfc, 0xc2, 0x87, 0xbd,
  0xd9, 0xe7, 0xa8, 0xbd, 0xda, 0x9d, 0x9d, 0x3e, 0x88, 0x60, 0xf6, 0xbd,
  0x35, 0x4c, 0xd2, 0xbe, 0xe8, 0x63, 0x0b, 0x3d, 0xb9, 0xb1, 0xb3, 0x3e,
  0xe2, 0x4c, 0xc8, 0x3e, 0x33, 0xc1, 0x9c, 0x3e, 0x08, 0xdc, 0x26, 0xbe,
  0xfe, 0x65, 0xcd, 0xbc, 0x30, 0x8f, 0xcd, 0x3d, 0x0c, 0xd8, 0x81, 0x3e,
  0x62, 0x76, 0x01, 0xbd, 0xfa, 0x83, 0xca, 0x3d, 0x47, 0xb9, 0x30, 0x3e,
  0xfc, 0x90, 0x6f, 0x3b, 0x39, 0x82, 0x5d, 0xbd, 0x1b, 0x7b, 0xa6, 0x3d,
  0xdf, 0xb2, 0x6c, 0x3d, 0x65, 0x74, 0xb3, 0xbd, 0x29, 0x90, 0x9e, 0x3c,
  0xee, 0x4c, 0xa5, 0x3d, 0x18, 0x5c, 0xf4, 0x3e, 0xb6, 0x30, 0x4f, 0x3e,
  0x73, 0xf3, 0x71, 0xbc, 0x06, 0xc8, 0xb3, 0x3d, 0x9b, 0x1d, 0x1c, 0x3e,
  0x34, 0x7d, 0x3c, 0x3e, 0xaa, 0xed, 0xdd, 0xbc, 0x6f, 0x05, 0x92, 0x3c,
  0x3b, 0xb9, 0x74, 0x3e, 0x34, 0xf3, 0x63, 0x3e, 0xbf, 0xfe, 0x97, 0xbb,
  0xac, 0x1d, 0xc5, 0x3d, 0xeb, 0x70, 0x63, 0x3e, 0xcd, 0x00, 0x87, 0xbe,
  0x74, 0x86, 0x24, 0x3e, 0x57, 0xef, 0xa8, 0x3e, 0xb3, 0x34, 0xcd, 0xbe,
  0x35, 0x2a, 0xa0, 0x3c, 0x36, 0xd0, 0xef, 0xbd, 0x56, 0x4e, 0xa7, 0x3c,
  0x47, 0xb6, 0xd1, 0x3e, 0x87, 0x78, 0xeb, 0x3e, 0x00, 0x60, 0xa7, 0xbd,
  0xea, 0xd3, 0x7a, 0x3e, 0x96, 0x49, 0xc4, 0x3e, 0x43, 0x67, 0xa4, 0x3e,
  0x2d, 0x1b, 0x21, 0xbe, 0xba, 0xb4, 0x19, 0x3e, 0x3a, 0x54, 0x9a, 0x3d,
  0x85, 0xcc, 0x3f, 0xbe, 0xf6, 0xa6, 0x47, 0xbd, 0x37, 0xca, 0xa8, 0xbd,
  0xdf, 0x98, 0x5e, 0xbd, 0x4a, 0x8f, 0x83, 0xbe, 0xd1, 0xfa, 0x05, 0xbe,
  0xb8, 0xd4, 0x31, 0xbe, 0xca, 0xc5, 0x9c, 0xbe, 0x4b, 0x65, 0x34, 0x3e,
  0x94, 0x8c, 0x04, 0xbe, 0x21, 0x8e, 0x0c, 0xbe, 0x17, 0xec, 0x2e, 0xbe,
  0x45, 0xa2, 0x9d, 0x3c, 0xd2, 0x83, 0xff, 0x3d, 0x2e, 0x74, 0x56, 0x3e,
  0x6c, 0x7b, 0x4d, 0x3e, 0xff, 0xa9, 0x81, 0xbe, 0xf1, 0x2f, 0xa4, 0xbc,
  0x9c, 0x54, 0xf4, 0xbe, 0xb3, 0xce, 0xe2, 0x3c, 0x30, 0xec, 0x8d, 0x3d,
  0x62, 0x31, 0xca, 0xbd, 0xcc, 0x75, 0x0b, 0xbe, 0xbc, 0xa9, 0xde, 0xbe,
  0xd5, 0xae, 0x8a, 0xbe, 0xc7, 0x99, 0xe5, 0xbd, 0x35, 0x20, 0x5c, 0xbe,
  0x5b, 0x38, 0x60, 0xbe, 0x58, 0x1e, 0x16, 0x3b, 0xee, 0x2a, 0xfe, 0xbd,
  0x82, 0xc9, 0xbb, 0xbd, 0xfe, 0xed, 0xa6, 0xbd, 0x50, 0xc5, 0x13, 0x3d,
  0xe2, 0x7f, 0x80, 0xbe, 0xd8, 0x39, 0xd8, 0x3c, 0x7c, 0xf2, 0xc3, 0xbd,
  0x6f, 0xb8, 0x3f, 0x3d, 0x9f, 0xce, 0x87, 0x3e, 0xa7, 0xff, 0xb8, 0xbd,
  0xf0, 0x2e, 0x4f, 0xbe, 0x67, 0x10, 0xb1, 0xbd, 0x09, 0xbf, 0x4e, 0xbd,
  0x62, 0x1e, 0x86, 0xbb, 0x10, 0x94, 0x84, 0xbe, 0x15, 0x19, 0x8e, 0xbd,
  0x3a, 0xff, 0x13, 0xbe, 0xc3, 0x3e, 0x9c, 0xbe, 0x3d, 0x65, 0x1d, 0xbd,
  0x00, 0xfa, 0x9b, 0x3d, 0xd5, 0xb7, 0x8c, 0xbd, 0xa7, 0x63, 0x8d, 0x3c,
  0xa4, 0xcf, 0x1a, 0xbe, 0xc2, 0x24, 0x47, 0x3d, 0xce, 0x49, 0x9e, 0x3e,
  0xbe, 0xdc, 0xb2, 0xbd, 0x5e, 0x5d, 0x3b, 0xbe, 0xd4, 0xa5, 0x4f, 0xbe,
  0x23, 0x26, 0x3b, 0xbc, 0xc6, 0x4b, 0xb2, 0x3d, 0x52, 0xcf, 0x67, 0xbe,
  0xe9, 0xff, 0x17, 0x3e, 0x88, 0x98, 0xba, 0x3c, 0xf9, 0x09, 0x5d, 0xbe,
  0xb9, 0xb8, 0x82, 0x3d, 0x1d, 0x4f, 0xfb, 0x3d, 0x83, 0x36, 0x27, 0xbe,
  0x7e, 0x7f, 0x9e, 0xbd, 0xf9, 0xff, 0x4e, 0xbe, 0x68, 0x05, 0x89, 0x3b,
  0x4d, 0x65, 0x14, 0x3e, 0xc7, 0xee, 0x8a, 0xbd, 0xb6, 0x22, 0x65, 0xbe,
  0xa1, 0x0f, 0x14, 0xbe, 0x60, 0x38, 0x9c, 0x3d, 0x97, 0x6d, 0xa2, 0x3d,
  0x41, 0xb7, 0x5b, 0xbe, 0xdb, 0x13, 0x3b, 0x3d, 0x91, 0x1c, 0x0e, 0xbe,
  0x9f, 0x5d, 0x61, 0xbe, 0x83, 0xbc, 0x94, 0xbd, 0x85, 0x63, 0xc3, 0xbc,
  0x75, 0x62, 0xee, 0xbd, 0x77, 0x1c, 0x51, 0xbe, 0xeb, 0x31, 0x8e, 0xbe,
  0xb8, 0x0d, 0xef, 0x3d, 0x78, 0x69, 0x7f, 0x3e, 0xc6, 0xa0, 0x12, 0xbe,
  0x4c, 0x50, 0xa7, 0xbe, 0x53, 0x32, 0x89, 0xbe, 0xd4, 0x3f, 0x58, 0xbd,
  0xf9, 0x06, 0xb8, 0x3b, 0x65, 0xea, 0xd9, 0xbe, 0xbc, 0x55, 0xa5, 0x3c,
  0x84, 0x28, 0x48, 0xbd, 0x2f, 0xd0, 0x5d, 0xbe, 0xfe, 0xec, 0x62, 0xbd,
  0xea, 0xce, 0xc8, 0x3d, 0xbe, 0x01, 0x60, 0xbe, 0xe6, 0xac, 0xda, 0x3c,
  0xea, 0xa8, 0x69, 0x3e, 0x83, 0x9d, 0x19, 0xbe, 0xef, 0x10, 0xbd, 0x3d,
  0x6f, 0x17, 0x21, 0xbe, 0xcd, 0x99, 0x4c, 0x3e, 0xf1, 0xdf, 0x4b, 0xbe,
  0x02, 0xba, 0x2d, 0xbe, 0x29, 0xfd, 0x7b, 0xbd, 0xb4, 0x5f, 0x4d, 0xbc,
  0x70, 0xcf, 0xf9, 0xbc, 0x2a, 0x77, 0x23, 0x3e, 0x06, 0xb8, 0xa8, 0xbd,
  0x01, 0x2e, 0x04, 0xbe, 0x7d, 0x87, 0x69, 0x3e, 0x3d, 0xb1, 0x17, 0xbe,
  0xd4, 0xf3, 0x19, 0xbd, 0x92, 0x14, 0x40, 0x3f, 0x21, 0x0d, 0x90, 0x3c,
  0x9c, 0xf2, 0xb8, 0x3e, 0xf2, 0x1a, 0x90, 0xbe, 0xc0, 0x34, 0xe1, 0x3e,
  0x9f, 0x1e, 0x21, 0xbd, 0x04, 0x76, 0x7a, 0xbe, 0x36, 0x44, 0x40, 0xbd,
  0x65, 0x3e, 0xe6, 0x3d, 0x95, 0x5c, 0x7d, 0xbd, 0x42, 0xa0, 0x23, 0x3e,
  0x8c, 0x82, 0xaa, 0xbd, 0x83, 0xc8, 0x5a, 0xbe, 0xa1, 0x59, 0x99, 0x3d,
  0xbb, 0xbf, 0x58, 0xbe, 0x8e, 0xb7, 0x9e, 0xbd, 0xb6, 0x09, 0x3f, 0x3f,
  0xfe, 0x98, 0xba, 0x3d, 0xed, 0x63, 0xf4, 0x3e, 0xd2, 0x05, 0xad, 0xbe,
  0xb2, 0x87, 0xbf, 0x3e, 0xad, 0xb4, 0x27, 0xbe, 0xb1, 0x56, 0xba, 0xbe,
  0xb0, 0xa2, 0x09, 0xbd, 0xbd, 0x7e, 0x27, 0x3d, 0x58, 0x96, 0x4c, 0x3d,
  0x12, 0xb8, 0x0d, 0x3c, 0xea, 0x4e, 0x33, 0x3e, 0x41, 0xed, 0x1e, 0x3e,
  0xdd, 0xc9, 0x54, 0xbe, 0x0e, 0x0e, 0xa8, 0x3d, 0xcd, 0xd3, 0x1f, 0x3e,
  0x6b, 0xc5, 0x2a, 0x3f, 0xd6, 0xb2, 0x59, 0xbd, 0x93, 0xc2, 0x20, 0x3e,
  0x46, 0x3a, 0x5d, 0x3c, 0xc4, 0x9a, 0xc7, 0x3e, 0x00, 0x21, 0x57, 0xbe,
  0xa0, 0x6f, 0xa6, 0xbc, 0x05, 0x1c, 0xfd, 0xbd, 0x8e, 0x0e, 0xc6, 0xbc,
  0xc5, 0xa2, 0x67, 0xbe, 0x4b, 0x44, 0x5d, 0x3e, 0xfc, 0x6a, 0x27, 0x3e,
  0x7d, 0x6a, 0x88, 0xbe, 0xd3, 0x70, 0x50, 0xbe, 0xe6, 0x91, 0x01, 0x3e,
  0x03, 0x1e, 0xd3, 0x3d, 0xa4, 0x1b, 0x09, 0x3f, 0xd9, 0x22, 0x23, 0x3e,
  0x4b, 0xad, 0xf1, 0x3e, 0x77, 0xa0, 0x9d, 0xbc, 0xd7, 0x30, 0xad, 0x3e,
  0x27, 0x12, 0x21, 0x3d, 0x32, 0x04, 0x10, 0xbe, 0x76, 0xf9, 0xda, 0x3d,
  0xb2, 0x23, 0x53, 0xbe, 0x56, 0xc0, 0x5f, 0x3d, 0xc9, 0xf5, 0xac, 0x3c,
  0x63, 0xc2, 0xba, 0xbd, 0xee, 0xd6, 0x8e, 0xbe, 0x82, 0x8b, 0x32, 0xbe,
  0x38, 0x07, 0x97, 0x3d, 0xec, 0x41, 0x73, 0xbe, 0xad, 0x83, 0xe0, 0x3e,
  0xa3, 0xb9, 0xef, 0xbc, 0x41, 0x6d, 0xf8, 0x3e, 0x23, 0x73, 0x9b, 0xbd,
  0x7f, 0x96, 0xeb, 0x3d, 0xb3, 0x69, 0x57, 0xbe, 0x3d, 0x72, 0xfe, 0xbd,
  0x21, 0x53, 0x82, 0xbe, 0xef, 0xfe, 0x49, 0xbe, 0x11, 0x15, 0x64, 0xbe,
  0xeb, 0xb5, 0x00, 0x3e, 0x93, 0x6a, 0x8c, 0x3d, 0x41, 0x5d, 0x80, 0xbe,
  0x8a, 0x40, 0xf9, 0xbc, 0x16, 0xc2, 0x79, 0xbe, 0x1e, 0x80, 0x31, 0xbe,
  0xc9, 0xe3, 0xf5, 0x3e, 0xe0, 0x50, 0xb5, 0x3d, 0x30, 0xdd, 0x9b, 0x3e,
  0x3d, 0xdf, 0x06, 0xbe, 0xe7, 0xa8, 0x12, 0x3c, 0x1e, 0x73, 0x76, 0xbe,
  0x75, 0x1b, 0xee, 0xbc, 0xa3, 0x6e, 0x95, 0xbe, 0x4c, 0x1a, 0xc3, 0x3d,
  0xae, 0x9e, 0x7a, 0xbe, 0x0a, 0xf3, 0x60, 0xbd, 0x96, 0x8d, 0xa4, 0xbd,
  0xbb, 0x25, 0x91, 0xbe, 0x52, 0x34, 0x12, 0x3d, 0x89, 0xdf, 0x5a, 0x3c,
  0xfc, 0x9e, 0x80, 0xbd, 0x7e, 0x3c, 0xc0, 0xbd, 0x07, 0xcc, 0xcd, 0x3c,
  0x80, 0x93, 0x3f, 0xbe, 0x4a, 0xfb, 0xc2, 0x3c, 0x69, 0x48, 0xc5, 0x3d,
  0xe9, 0xd9, 0x33, 0xbe, 0x55, 0x2f, 0xe6, 0xbd, 0x7a, 0x88, 0xe0, 0xbc,
  0x05, 0x9e, 0xf3, 0x3d, 0xb5, 0x8d, 0x18, 0xbe, 0x4e, 0xe8, 0x8b, 0xbe,
  0xec, 0x2a, 0x3b, 0x3c, 0xbe, 0x73, 0xd9, 0xbc, 0xf6, 0x3d, 0x87, 0x3d,
  0x02, 0xfe, 0x72, 0x3d, 0x8e, 0xbf, 0xda, 0xbc, 0x1f, 0x99, 0xea, 0xbd,
  0x35, 0xff, 0x42, 0xbe, 0x31, 0x5f, 0xa4, 0x3c, 0x62, 0xf5, 0x90, 0xbd,
  0xf8, 0xc0, 0x40, 0x3d, 0x9c, 0x6c, 0xcb, 0x3d, 0x02, 0x28, 0x1c, 0xbe,
  0x55, 0xf9, 0x82, 0xbe, 0x2f, 0x21, 0x71, 0x3c, 0xcd, 0x31, 0x20, 0xbe,
  0x3d, 0xa5, 0xc7, 0xbd, 0xca, 0x34, 0x2b, 0x3e, 0x3b, 0xc9, 0x5d, 0xbe,
  0x0d, 0x5f, 0x3b, 0xbd, 0x5a, 0x17, 0x90, 0xbd, 0x01, 0x9d, 0xb0, 0x3c,
  0x79, 0xe4, 0xbd, 0xbd, 0x0e, 0x2e, 0xbe, 0xbd, 0x6d, 0xaf, 0x25, 0x3e,
  0x8d, 0xf4, 0x76, 0x3d, 0x06, 0xd8, 0x13, 0x3d, 0x2c, 0x7b, 0x70, 0xbc,
  0x2d, 0x35, 0x2d, 0xbe, 0x60, 0xc0, 0x7f, 0xbe, 0xf2, 0x6c, 0xc5, 0x3d,
  0xa1, 0xb2, 0xab, 0x3d, 0xb3, 0x08, 0xee, 0x3c, 0xfb, 0xfb, 0x19, 0x3d,
  0x7a, 0xa9, 0x3f, 0xbc, 0x15, 0xfd, 0x33, 0x3d, 0x57, 0xa4, 0x3f, 0xbe,
  0x90, 0xc5, 0x76, 0x3d, 0xef, 0x40, 0xcd, 0x3c, 0x59, 0xe9, 0xba, 0xbd,
  0xdf, 0xa4, 0x71, 0xbe, 0x0a, 0xac, 0xc0, 0xbd, 0x2f, 0xe3, 0x0f, 0xbe,
  0x0c, 0xcb, 0x24, 0x3e, 0xcf, 0x77, 0x3c, 0xbe, 0x99, 0x86, 0xad, 0xbd,
  0x6a, 0xc4, 0x0a, 0xbe, 0x9a, 0x3d, 0x85, 0xbd, 0xfc, 0xf4, 0xa3, 0xbc,
  0xa8, 0xc6, 0x13, 0xbe, 0xa0, 0x8e, 0x2c, 0xbe, 0x5b, 0x74, 0x7b, 0xbe,
  0x10, 0x5a, 0x44, 0xbe, 0xfa, 0x96, 0x27, 0xbe, 0x9d, 0x8d, 0x26, 0xbe,
  0xdf, 0xe9, 0xe9, 0xbc, 0x97, 0x64, 0x80, 0xbd, 0x33, 0xf8, 0x07, 0x3e,
  0x6d, 0x2f, 0x8b, 0xbd, 0x92, 0x71, 0x47, 0x3e, 0x54, 0xbf, 0x71, 0xbe,
  0xe6, 0x64, 0x19, 0x3e, 0x13, 0x30, 0xaf, 0xbd, 0x65, 0x7d, 0x53, 0xbe,
  0x3f, 0x2d, 0x82, 0xbd, 0x68, 0x4b, 0x16, 0x3e, 0xd1, 0x36, 0x67, 0xbe,
  0x3d, 0x3d, 0x06, 0xbe, 0xbb, 0xdb, 0x2d, 0xbe, 0x1f, 0x63, 0x9e, 0x3c,
  0x63, 0x68, 0x70, 0xbe, 0x2c, 0x00, 0x6d, 0xbe, 0xc3, 0x05, 0xd5, 0x3d,
  0x07, 0xed, 0x11, 0xbe, 0x54, 0x65, 0x8d, 0x3d, 0xd1, 0x6a, 0xf8, 0x3d,
  0x43, 0xd5, 0x79, 0xbe, 0x12, 0x08, 0x20, 0xbe, 0x6c, 0xb6, 0xbc, 0x3d,
  0x35, 0x6b, 0x1d, 0xbe, 0xea, 0xe8, 0x62, 0xbe, 0x00, 0x8b, 0x7c, 0x3d,
  0x05, 0xce, 0xd6, 0xbd, 0x9b, 0x05, 0x94, 0xbe, 0x7c, 0x62, 0x8b, 0xbe,
  0x30, 0x9e, 0x0a, 0xbe, 0xd2, 0xb2, 0xc1, 0x3d, 0xcf, 0x40, 0xff, 0xbd,
  0x7b, 0x8c, 0x2a, 0xbe, 0x65, 0xa5, 0x82, 0xbe, 0x04, 0x6f, 0xa0, 0xbd,
  0xc1, 0xcb, 0x9f, 0xbc, 0x8a, 0x3f, 0xa2, 0xbd, 0xc4, 0x91, 0x8d, 0x3d,
  0xd9, 0x84, 0x6b, 0x3d, 0x48, 0x50, 0x04, 0xbe, 0x03, 0x20, 0xb4, 0x3c,
  0x4a, 0x6b, 0x0b, 0x3d, 0xf9, 0x9b, 0x60, 0xbe, 0x8c, 0xcd, 0x5d, 0x3e,
  0x10, 0x6b, 0x86, 0xbe, 0xe1, 0x3e, 0x0b, 0xbf, 0xc3, 0x3e, 0xca, 0x3e,
  0x82, 0x43, 0xfb, 0x3d, 0xdc, 0x89, 0x03, 0x3f, 0xf6, 0x65, 0xf4, 0xbd,
  0x34, 0x79, 0xc5, 0xbe, 0x77, 0x14, 0x11, 0xbf, 0xdd, 0x62, 0x42, 0xbd,
  0xef, 0xdc, 0x65, 0xbe, 0x10, 0x6b, 0x3d, 0xbf, 0x22, 0x74, 0x61, 0xbd,
  0x85, 0xd8, 0xd6, 0x3e, 0x3e, 0x35, 0xe9, 0xbe, 0x50, 0x6c, 0x90, 0x3c,
  0x4a, 0x81, 0x84, 0x3e, 0xe7, 0x0d, 0x1b, 0xbe, 0x05, 0x94, 0x8c, 0x3e,
  0xaf, 0x41, 0x68, 0x3e, 0x9c, 0xef, 0x17, 0x3e, 0xca, 0x24, 0x31, 0x3f,
  0x41, 0xc6, 0x86, 0x3c, 0x8e, 0x0a, 0x9b, 0x3e, 0x4d, 0xee, 0x74, 0x3e,
  0x70, 0xff, 0x58, 0x3d, 0x46, 0x49, 0x65, 0x3d, 0x15, 0x16, 0x14, 0x3e,
  0x43, 0xa0, 0xc3, 0xbc, 0xa6, 0xd2, 0x16, 0xbe, 0x82, 0x45, 0xbb, 0xbd,
  0xb4, 0x54, 0x13, 0x3c, 0xe0, 0x0d, 0xa2, 0x3e, 0xe8, 0x88, 0x0e, 0x3e,
  0x95, 0xe4, 0x19, 0x3f, 0x0f, 0xc6, 0xdf, 0x3e, 0x76, 0xe8, 0xc5, 0x3e,
  0x80, 0x06, 0x07, 0x3f, 0x33, 0x87, 0x08, 0x3e, 0x57, 0xf5, 0xe1, 0x3e,
  0xeb, 0xfa, 0x8a, 0x3e, 0x49, 0xb9, 0xc2, 0x3d, 0x6c, 0xab, 0x5b, 0x3d,
  0xc8, 0x58, 0x27, 0x3f, 0x18, 0x9c, 0xe4, 0x3d, 0x42, 0xaa, 0xd4, 0x3c,
  0x12, 0xca, 0xee, 0x3e, 0xd2, 0x7c, 0x16, 0x3e, 0xdd, 0xdf, 0xff, 0x3e,
  0x89, 0xc6, 0x02, 0x3f, 0xa3, 0x20, 0xba, 0x3e, 0x96, 0x31, 0x30, 0xbe,
  0x2e, 0xac, 0x64, 0x3e, 0x38, 0x4d, 0x06, 0x3e, 0xec, 0xb9, 0x04, 0x3d,
  0x65, 0xb4, 0x05, 0x3f, 0xa4, 0x92, 0xac, 0x3e, 0xe6, 0x27, 0xa9, 0x3d,
  0xef, 0xd5, 0xc0, 0x3e, 0x3e, 0xd5, 0x13, 0x3f, 0x81, 0xc2, 0x70, 0x3e,
  0x10, 0x75, 0x8b, 0x3e, 0xfa, 0xbc, 0x2a, 0x3f, 0x77, 0x98, 0x3f, 0x3e,
  0x28, 0x57, 0x7b, 0x3e, 0xce, 0xc8, 0xaf, 0x3d, 0xbe, 0x8d, 0x05, 0xbe,
  0x6e, 0x65, 0xb7, 0xbe, 0xe8, 0xe9, 0x0a, 0xbd, 0x79, 0xd4, 0x8c, 0x3e,
  0x29, 0xa5, 0xd0, 0x3d, 0x43, 0x0a, 0x5d, 0x3e, 0x6f, 0xc6, 0xcd, 0xbc,
  0xda, 0xa0, 0xa9, 0x3d, 0xdd, 0x91, 0x42, 0xbd, 0x37, 0xc8, 0x02, 0x3d,
  0x0e, 0x40, 0xd2, 0x3d, 0xdd, 0x61, 0x99, 0x3e, 0xe5, 0xd5, 0x69, 0xbe,
  0x81, 0xaf, 0xe2, 0x3d, 0x7c, 0x1f, 0x71, 0x3e, 0x4c, 0xcd, 0xbc, 0xbd,
  0x6a, 0xd6, 0x1b, 0xbe, 0x76, 0xea, 0x7d, 0xbd, 0x20, 0x7a, 0xb0, 0xbe,
  0x36, 0x38, 0x18, 0x3e, 0x43, 0x0e, 0x5a, 0xbc, 0x9d, 0x28, 0x53, 0x3c,
  0x38, 0xef, 0xcf, 0xbd, 0x82, 0x87, 0x9d, 0x3c, 0x32, 0xee, 0x23, 0xbe,
  0x80, 0xe5, 0x38, 0xbd, 0x00, 0x1e, 0x9d, 0xbc, 0xdf, 0xd1, 0x68, 0xba,
  0x0f, 0x5c, 0x15, 0xbe, 0x3c, 0x0b, 0xcf, 0xbd, 0xe8, 0x62, 0xcb, 0x3d,
  0xa8, 0x35, 0x85, 0xbd, 0xbf, 0x81, 0x25, 0xbe, 0x29, 0x71, 0x01, 0xbe,
  0xbb, 0x10, 0xa6, 0xb9, 0x38, 0xed, 0x97, 0xbd, 0x68, 0x8e, 0x0d, 0xbd,
  0x9f, 0x56, 0x09, 0xbe, 0xd2, 0xeb, 0xba, 0xbd, 0xb1, 0x7a, 0x87, 0xbc,
  0xac, 0x56, 0xc3, 0xbc, 0x3c, 0xdb, 0x00, 0xbe, 0x57, 0xf8, 0x1b, 0xbe,
  0xbf, 0xd4, 0x68, 0xbd, 0x69, 0x86, 0x41, 0xbe, 0x16, 0x78, 0x24, 0xbd,
  0x6e, 0xe8, 0x47, 0xbd, 0x35, 0x3e, 0xd0, 0xbc, 0x34, 0xd1, 0x44, 0x3d,
  0x84, 0x24, 0x1e, 0x3c, 0x41, 0x66, 0x65, 0x3c, 0x6c, 0xde, 0xac, 0xbd,
  0x29, 0x19, 0x4e, 0xbe, 0x77, 0xe4, 0x93, 0xbd, 0xb4, 0x19, 0x2f, 0x3c,
  0x88, 0xf7, 0xc9, 0x3d, 0x95, 0xf9, 0xcb, 0xbd, 0xe4, 0x4c, 0x0c, 0x3e,
  0x24, 0x60, 0xb8, 0xbd, 0x1f, 0x9c, 0xdd, 0xbd, 0x60, 0x8a, 0x2f, 0x3d,
  0xca, 0x9b, 0x7c, 0xbe, 0x3f, 0x95, 0x8f, 0x3d, 0xfc, 0xe2, 0x49, 0xbe,
  0xac, 0x4b, 0x04, 0xbe, 0xc9, 0x34, 0x8f, 0x3b, 0x9d, 0xfa, 0x7b, 0xbe,
  0x7a, 0x51, 0x2c, 0x3e, 0x96, 0x20, 0x2b, 0xbe, 0xc5, 0x8e, 0x86, 0x3d,
  0xd9, 0x04, 0x94, 0xbb, 0xbe, 0x6c, 0x39, 0xbe, 0xbf, 0xb0, 0xa1, 0x39,
  0x12, 0xb6, 0xde, 0xbd, 0xf8, 0xc9, 0x4f, 0xbe, 0xad, 0x43, 0x1c, 0x3d,
  0x14, 0x7d, 0x50, 0xbe, 0x10, 0xbc, 0x14, 0xbe, 0x5e, 0x90, 0x17, 0x3e,
  0x46, 0x1b, 0x01, 0xbe, 0x47, 0x5c, 0xda, 0xbd, 0x65, 0xcb, 0xf0, 0x3d,
  0x56, 0xde, 0x7f, 0x3d, 0xc0, 0x44, 0xb8, 0x3d, 0x7d, 0x21, 0x87, 0xbe,
  0x74, 0xb2, 0x20, 0xbe, 0x56, 0xdf, 0x63, 0xbe, 0x82, 0x05, 0x92, 0xbd,
  0xc5, 0x10, 0x34, 0xbd, 0xcb, 0xc5, 0xd2, 0xbd, 0xc7, 0xd4, 0x16, 0x3d,
  0xa4, 0x87, 0x3d, 0x3d, 0x43, 0xed, 0x10, 0x3d, 0x12, 0x31, 0x1b, 0xbe,
  0x22, 0x82, 0x49, 0xbe, 0x67, 0x44, 0x2a, 0xbe, 0x40, 0x49, 0x49, 0x3c,
  0x89, 0x87, 0x97, 0xbd, 0x75, 0x84, 0x6b, 0xbd, 0x9e, 0x4f, 0x34, 0x3e,
  0x42, 0x54, 0xf4, 0xbd, 0x38, 0x36, 0xa8, 0xbd, 0xb6, 0xb3, 0x37, 0x3e,
  0x46, 0x2b, 0x61, 0xbe, 0x7f, 0x08, 0x8f, 0x3c, 0xc9, 0x9c, 0x19, 0x3e,
  0x1b, 0xe2, 0x04, 0xbe, 0xee, 0xae, 0x17, 0x3b, 0xbc, 0xe6, 0x4e, 0xbe,
  0x45, 0x2f, 0x62, 0xbd, 0x56, 0x2b, 0x6c, 0xbe, 0x50, 0x96, 0xb1, 0xbd,
  0xc8, 0x5c, 0x1b, 0x3e, 0x09, 0x8f, 0xba, 0xbd, 0x6c, 0x17, 0xdb, 0x3d,
  0xa9, 0xf1, 0x29, 0xbe, 0x33, 0xe8, 0xb0, 0x3d, 0x64, 0x9a, 0x1f, 0xbe,
  0x72, 0x8c, 0xe6, 0xbc, 0x17, 0x90, 0x6b, 0xbd, 0x2c, 0x5c, 0x80, 0xbe,
  0x17, 0x65, 0x15, 0xbe, 0xfc, 0x35, 0xf1, 0x3d, 0xfe, 0x7e, 0x5e, 0xbe,
  0x56, 0xa4, 0x54, 0xbe, 0xd2, 0x3b, 0x31, 0xbd, 0x19, 0xce, 0x9f, 0x3d,
  0x61, 0xa8, 0x01, 0x3d, 0x8c, 0x29, 0xc2, 0x3d, 0x4e, 0x4b, 0xfd, 0x3d,
  0x0b, 0xdc, 0x80, 0x3d, 0x28, 0xdf, 0x29, 0x3e, 0x4e, 0x54, 0xa3, 0xbd,
  0xdb, 0x54, 0x80, 0x3b, 0x77, 0x6c, 0x06, 0x3e, 0x60, 0xac, 0xfa, 0xbd,
  0xf9, 0x8f, 0x08, 0xbd, 0x8e, 0x84, 0x25, 0xbe, 0xbb, 0x83, 0x12, 0x3e,
  0x72, 0x1a, 0x9d, 0x3c, 0x78, 0x6e, 0x41, 0xbd, 0x5a, 0x92, 0x7a, 0xbe,
  0xf2, 0x7c, 0xc3, 0xbc, 0xb7, 0x5c, 0xb5, 0xbc, 0xa2, 0xd9, 0xf0, 0x3d,
  0xcb, 0x0f, 0x8f, 0xbc, 0xa1, 0x74, 0x04, 0xbe, 0xcd, 0x12, 0xb6, 0xbd,
  0xc0, 0x96, 0xd6, 0x3d, 0xaa, 0x91, 0x1a, 0xbe, 0x20, 0xdb, 0x37, 0xbd,
  0xa0, 0xe5, 0x73, 0xbe, 0x1a, 0x1c, 0x2d, 0xbe, 0xf9, 0xe4, 0x67, 0xbd,
  0x0b, 0x8f, 0x06, 0xbd, 0xda, 0xf5, 0x8b, 0xbe, 0x56, 0xe3, 0x82, 0xbe,
  0xd5, 0x78, 0x3e, 0xbe, 0xa6, 0x7e, 0xbc, 0xbe, 0xc8, 0xe6, 0x87, 0x3e,
  0x92, 0x91, 0xb3, 0x3e, 0x3f, 0x98, 0x8f, 0xbe, 0x76, 0xf8, 0x7e, 0xbd,
  0x7f, 0xcb, 0xcd, 0xbe, 0x8e, 0xc9, 0x11, 0x3e, 0x73, 0x0c, 0x53, 0x3e,
  0xe0, 0xe0, 0xb9, 0x3e, 0x52, 0x72, 0x7a, 0x3c, 0x1b, 0x4f, 0x00, 0x3e,
  0x90, 0xa0, 0x53, 0x3e, 0xd0, 0x87, 0xf2, 0x3d, 0x1c, 0x8d, 0x48, 0xbe,
  0x74, 0xc2, 0xf8, 0x3e, 0x78, 0x0c, 0x00, 0xbe, 0x0f, 0xe2, 0x86, 0xbe,
  0xa4, 0xbd, 0x77, 0xbb, 0xba, 0xcf, 0x0e, 0xbe, 0x5f, 0xa2, 0x36, 0xbe,
  0x07, 0x51, 0x46, 0xbe, 0x2c, 0x1f, 0x07, 0xbe, 0x6d, 0x63, 0xd6, 0xbd,
  0xc2, 0xf1, 0x6f, 0xbc, 0x35, 0x6e, 0x0e, 0x3e, 0x47, 0x43, 0x66, 0xbd,
  0xe4, 0xce, 0x4f, 0xbd, 0x78, 0xac, 0xb2, 0xbc, 0x16, 0x47, 0x8f, 0x3d,
  0x25, 0x99, 0xca, 0x3e, 0xae, 0x4c, 0x9b, 0x3e, 0x9c, 0x0c, 0x9c, 0xbd,
  0x1a, 0x36, 0x95, 0xbe, 0xd2, 0x02, 0xe5, 0xbe, 0x4f, 0x42, 0x11, 0xbe,
  0x65, 0x16, 0xdd, 0xbd, 0x53, 0xc4, 0x6c, 0xbe, 0x7f, 0x65, 0x06, 0x3c,
  0x2d, 0x10, 0xa6, 0xbd, 0x93, 0xea, 0xaf, 0xbd, 0x72, 0x3b, 0x29, 0xbe,
  0x92, 0x25, 0x22, 0xbd, 0x48, 0x03, 0x88, 0xbe, 0x91, 0x82, 0x4f, 0xbe,
  0x42, 0x66, 0x09, 0xbe, 0x88, 0x76, 0x3f, 0xbe, 0x17, 0x8b, 0x5a, 0xbc,
  0xdb, 0xcd, 0xf4, 0xbd, 0xbe, 0x27, 0xe5, 0xbe, 0x61, 0x72, 0xe9, 0xbe,
  0x18, 0x0c, 0x00, 0xbe, 0x8f, 0xe8, 0x7d, 0x3d, 0x48, 0x93, 0xf5, 0x3c,
  0xbe, 0x3c, 0x02, 0xbe, 0xe6, 0x88, 0x36, 0xbe, 0xfb, 0x27, 0x2e, 0xbe,
  0xe0, 0xf7, 0xd7, 0xbe, 0x29, 0x99, 0x8e, 0xbc, 0x97, 0xf5, 0xd0, 0xbe,
  0x64, 0x39, 0xf5, 0xbd, 0x33, 0xe3, 0x1f, 0xbe, 0xf2, 0xab, 0x9e, 0xbe,
  0x20, 0x52, 0x76, 0xbe, 0x91, 0x2a, 0x62, 0xbe, 0xe6, 0xe1, 0x80, 0xbe,
  0xa7, 0x15, 0x88, 0x3d, 0x1a, 0x28, 0x37, 0x3e, 0xf4, 0xc5, 0xe7, 0x3e,
  0x3f, 0x33, 0x43, 0x3d, 0xc8, 0xb4, 0x06, 0x3e, 0x8e, 0x8c, 0xbd, 0x38,
  0xe7, 0x4b, 0x78, 0xbc, 0xd0, 0x98, 0x9b, 0x3e, 0x19, 0xcc, 0x91, 0xbc,
  0xe4, 0xec, 0x76, 0xbc, 0x3a, 0xb0, 0x06, 0x3e, 0xa1, 0x5c, 0x83, 0xbd,
  0x7d, 0x2f, 0xa7, 0xbe, 0xa3, 0xc1, 0xc8, 0x3d, 0x49, 0xa6, 0xfd, 0xbd,
  0x29, 0x77, 0x49, 0xbe, 0x60, 0x7f, 0x21, 0x3e, 0xcf, 0x84, 0x3a, 0x3e,
  0xb1, 0xc1, 0xb8, 0x3e, 0xa8, 0xef, 0x11, 0x3e, 0xdf, 0x7b, 0x6e, 0x3d,
  0x49, 0x81, 0x3c, 0xbc, 0x80, 0x5d, 0x4b, 0xba, 0x06, 0xdd, 0xca, 0x3e,
  0xab, 0x68, 0x36, 0xbc, 0xbe, 0xce, 0x19, 0x3d, 0xba, 0xb6, 0x70, 0x3e,
  0xe9, 0xa5, 0xf9, 0x3c, 0xd9, 0xd7, 0xc5, 0xbd, 0x29, 0xfa, 0x29, 0x3e,
  0x03, 0x82, 0xfa, 0x3d, 0x4e, 0xc9, 0x75, 0xbe, 0x46, 0xa4, 0xef, 0x3d,
  0x87, 0x53, 0x03, 0x3e, 0xa5, 0x35, 0xe9, 0x3e, 0x45, 0xa6, 0xb4, 0xbc,
  0x89, 0x40, 0x65, 0x3e, 0xcf, 0x80, 0x74, 0x3b, 0xd5, 0x32, 0xc8, 0x3d,
  0x3d, 0xa6, 0x95, 0x3d, 0x1f, 0x40, 0xba, 0xbc, 0xf5, 0x6c, 0x01, 0x3e,
  0xc1, 0x4b, 0x1a, 0x3e, 0xfd, 0xd8, 0xde, 0x3d, 0x71, 0xf0, 0xe9, 0x3d,
  0xaf, 0xa1, 0x98, 0x3c, 0x97, 0x09, 0xb2, 0x3d, 0x8e, 0x59, 0x7b, 0x3d,
  0x49, 0x03, 0x0c, 0xbd, 0xfc, 0x78, 0x88, 0xbe, 0xe6, 0x94, 0x5a, 0x3e,
  0x00, 0x6c, 0x6d, 0xbe, 0x86, 0xe3, 0x8c, 0x3e, 0x06, 0x65, 0x9e, 0xbd,
  0x75, 0x7a, 0x8a, 0x3e, 0xef, 0x95, 0xf2, 0xbb, 0x98, 0x5d, 0x48, 0xbd,
  0xc0, 0x19, 0x77, 0xbd, 0xb8, 0x09, 0x68, 0x3a, 0x19, 0x0d, 0xd9, 0xbd,
  0x84, 0x25, 0xd2, 0x3c, 0xdd, 0xa2, 0x69, 0xbe, 0xe1, 0x92, 0xae, 0xbd,
  0x4b, 0x85, 0x5f, 0xbe, 0xa5, 0x3f, 0xb4, 0xbc, 0x54, 0xa9, 0x1b, 0x3d,
  0xce, 0xf8, 0xdd, 0x3e, 0x35, 0xad, 0xa3, 0x3d, 0x64, 0x9e, 0x03, 0x3e,
  0xf2, 0x6b, 0x00, 0xbe, 0x6b, 0x09, 0x97, 0x3e, 0x24, 0x7c, 0x03, 0x3e,
  0xe6, 0xfb, 0xd5, 0xbd, 0x6b, 0xad, 0x10, 0x3d, 0xa2, 0xc9, 0x34, 0xbd,
  0xeb, 0xc7, 0x49, 0xbd, 0x7c, 0xb9, 0x37, 0xbd, 0x39, 0xa1, 0x17, 0x3e,
  0x78, 0x39, 0x4a, 0xbe, 0x12, 0xcb, 0xb6, 0x3d, 0x66, 0x35, 0x77, 0xbe,
  0x9b, 0xf4, 0x9a, 0x3d, 0x03, 0x8c, 0x3e, 0x3f, 0xd9, 0x08, 0x4b, 0xbd,
  0x33, 0xb3, 0xcc, 0x3d, 0x61, 0x7e, 0x61, 0xbe, 0x6b, 0xb4, 0xb9, 0x3e,
  0x73, 0x7d, 0x66, 0x3c, 0x08, 0xfb, 0x13, 0xbe, 0x11, 0x5b, 0xf6, 0x3c,
  0x47, 0xef, 0x23, 0x3d, 0x3c, 0x86, 0x91, 0xbe, 0xa5, 0x44, 0xda, 0x3c,
  0x94, 0x69, 0xb3, 0x3c, 0x0f, 0x38, 0x85, 0xbe, 0x43, 0x78, 0x9d, 0xbd,
  0xcb, 0x69, 0x0b, 0xbe, 0x03, 0x8a, 0x32, 0x3e, 0x76, 0xc5, 0x27, 0x3f,
  0xb5, 0x13, 0x78, 0xbe, 0x1f, 0x75, 0xeb, 0x3d, 0xdc, 0x86, 0x6a, 0xbe,
  0xf7, 0x06, 0xb7, 0x3e, 0x53, 0x30, 0x75, 0xbd, 0xa9, 0x03, 0x9e, 0x3d,
  0x13, 0x54, 0x8f, 0x3b, 0x5b, 0x90, 0x76, 0xbd, 0x52, 0x55, 0x4b, 0xbe,
  0x21, 0x61, 0xa4, 0x3d, 0xdf, 0x06, 0x13, 0x3e, 0x50, 0xe8, 0xee, 0xbd,
  0xb5, 0xc8, 0xc1, 0xbd, 0xec, 0x80, 0xba, 0xbd, 0x43, 0xd2, 0x54, 0x3c,
  0x8a, 0x28, 0xa6, 0x3e, 0xbd, 0x7b, 0x52, 0xbd, 0x5b, 0x33, 0x19, 0x3d,
  0xdb, 0xda, 0x86, 0xbb, 0x7c, 0x66, 0xa1, 0x3d, 0x7d, 0x94, 0x69, 0xbd,
  0xe7, 0x8c, 0xa7, 0xbe, 0x5a, 0x34, 0xfd, 0x3d, 0x50, 0x5d, 0x82, 0xbd,
  0xa3, 0xee, 0x76, 0xbe, 0xeb, 0x59, 0x5c, 0x3d, 0x7e, 0x62, 0x1d, 0xbe,
  0x8a, 0xa7, 0x9a, 0xbd, 0x4a, 0x2b, 0x54, 0x3d, 0xd6, 0xf3, 0x7d, 0xbd,
  0xce, 0xb5, 0x7c, 0x3d, 0x83, 0xfc, 0x34, 0x3e, 0x45, 0x20, 0xc8, 0x3b,
  0xfe, 0x01, 0xc1, 0x3e, 0xc0, 0xcd, 0x0e, 0x3d, 0x70, 0x96, 0x0e, 0x3d,
  0x01, 0x1e, 0x27, 0x3e, 0x66, 0xaf, 0x88, 0xbe, 0x90, 0xc5, 0x83, 0xbd,
  0xf5, 0xc1, 0x4a, 0xbe, 0xf1, 0x1e, 0xa2, 0xbd, 0x83, 0x7f, 0x98, 0xbe,
  0x45, 0x64, 0x1a, 0xbe, 0x9e, 0x2f, 0x92, 0xbc, 0x0e, 0x5a, 0xfb, 0xbc,
  0x02, 0x82, 0xf9, 0xbc, 0x54, 0xd7, 0x7f, 0xbd, 0xdc, 0x02, 0xdc, 0x3e,
  0xc9, 0xcd, 0xe2, 0x3d, 0x82, 0x8e, 0xd6, 0x3e, 0x3e, 0xdd, 0x9e, 0x3c,
  0x10, 0xa5, 0x8a, 0x3e, 0xea, 0x03, 0x27, 0xbe, 0xd5, 0x65, 0x12, 0xbe,
  0x78, 0x14, 0x14, 0xbe, 0xc3, 0x24, 0x21, 0xbc, 0x8b, 0x62, 0xbc, 0xbd,
  0x48, 0x98, 0x3c, 0xbd, 0x6a, 0xe3, 0x8b, 0xbd, 0x47, 0x4f, 0x9c, 0x3d,
  0x7a, 0x3c, 0xd6, 0xbd, 0x33, 0x8b, 0x71, 0xbe, 0xed, 0x7a, 0x8f, 0xbe,
  0x2a, 0x82, 0x88, 0x3e, 0xe1, 0xa8, 0xe5, 0xbd, 0x82, 0x4c, 0x4e, 0x3e,
  0x04, 0x2e, 0x31, 0xbe, 0x6c, 0x57, 0xd6, 0xbd, 0x2f, 0x9f, 0x5b, 0xbd,
  0x2f, 0x58, 0x30, 0xbe, 0xda, 0x24, 0x4d, 0x3a, 0x35, 0x37, 0x91, 0xbd,
  0xb6, 0xa3, 0xdc, 0x3c, 0x2a, 0x5f, 0x26, 0x3e, 0x1f, 0xf9, 0x1f, 0x3c,
  0xab, 0x0b, 0xb7, 0x3d, 0x23, 0xe9, 0xfb, 0x3c, 0xf7, 0xbc, 0x26, 0xbe,
  0xcd, 0xed, 0x1f, 0x3e, 0x36, 0x8f, 0x85, 0x3d, 0x04, 0xda, 0x33, 0xbe,
  0x2a, 0x65, 0xfb, 0x3d, 0xf6, 0x0b, 0xd7, 0xbc, 0x4b, 0xa7, 0x7e, 0xbe,
  0xda, 0xc5, 0x4b, 0xbe, 0x74, 0x7c, 0xbb, 0xbd, 0x07, 0xeb, 0xe5, 0x3d,
  0xba, 0x5c, 0x82, 0xbd, 0x30, 0x0b, 0x7a, 0xbe, 0x88, 0x05, 0xd0, 0xbd,
  0x9f, 0x5c, 0x60, 0xbe, 0x9a, 0x42, 0x1d, 0x3d, 0xb2, 0x47, 0x5b, 0x3e,
  0x7a, 0x2c, 0xdb, 0x3c, 0xec, 0xa2, 0x60, 0xbe, 0xbe, 0xb1, 0x2b, 0xbe,
  0x39, 0x36, 0x15, 0x3c, 0xfe, 0xf3, 0x0f, 0x3e, 0x79, 0x7c, 0x41, 0x3c,
  0x11, 0xd7, 0x43, 0xbe, 0xe8, 0xe4, 0x89, 0x3d, 0x5e, 0x29, 0xe2, 0xbd,
  0x51, 0x90, 0x62, 0x3e, 0x12, 0x01, 0x9b, 0xbd, 0xee, 0x0a, 0xb0, 0x3c,
  0x09, 0xbe, 0xc5, 0x3d, 0x86, 0xda, 0x12, 0xbe, 0x47, 0xdf, 0x87, 0x3e,
  0xde, 0x7f, 0xfc, 0x3c, 0x24, 0x1c, 0x81, 0x3d, 0xc8, 0xb3, 0x3a, 0x3d,
  0x6b, 0xc4, 0x3c, 0x3d, 0xf7, 0x7e, 0x39, 0x3e, 0x19, 0xd5, 0x58, 0x3e,
  0xad, 0x05, 0x95, 0xbe, 0xca, 0x4a, 0xbe, 0x3d, 0x80, 0x45, 0xb9, 0xbd,
  0x42, 0x3e, 0x62, 0x3d, 0xc6, 0x30, 0x3c, 0xbe, 0x14, 0x86, 0x1b, 0x3e,
  0xb7, 0x41, 0x83, 0x3d, 0x1c, 0xf3, 0x84, 0x3e, 0x66, 0x50, 0x50, 0x3e,
  0x89, 0xa8, 0x7d, 0xbe, 0x27, 0x91, 0x0a, 0x3e, 0xb9, 0x1e, 0x78, 0x3e,
  0x87, 0x46, 0xc9, 0x3c, 0x58, 0x2a, 0x71, 0x3d, 0x52, 0x9a, 0x38, 0xbd,
  0x27, 0x79, 0x2e, 0x3c, 0x96, 0xa4, 0x8d, 0xbe, 0x9e, 0xa8, 0x1e, 0xbe,
  0x3c, 0x06, 0x9c, 0x3d, 0x16, 0x43, 0x88, 0xbe, 0x76, 0x82, 0x64, 0x3e,
  0x0a, 0xf2, 0xfc, 0xbd, 0x3b, 0x6a, 0x3b, 0x3d, 0x61, 0xb5, 0xd6, 0xbc,
  0xdd, 0xe7, 0x02, 0xbe, 0x1e, 0x87, 0x2f, 0xbe, 0xcb, 0xe6, 0x8d, 0x3d,
  0x43, 0x9f, 0x38, 0xbe, 0xc4, 0x22, 0xba, 0x3d, 0x66, 0x96, 0x79, 0x39,
  0xb2, 0x92, 0x45, 0xbe, 0x67, 0x6b, 0x4f, 0x3e, 0x6e, 0xc8, 0x9b, 0x3b,
  0xda, 0x2c, 0xdb, 0xbd, 0x72, 0x05, 0x84, 0xbc, 0x46, 0x21, 0x17, 0xbe,
  0x84, 0x0a, 0x0c, 0x3d, 0x92, 0x14, 0x33, 0xbe, 0x78, 0xc7, 0x81, 0x3d,
  0x52, 0x5b, 0x6a, 0xbb, 0x38, 0x02, 0x15, 0xbc, 0x76, 0x75, 0x6e, 0xbd,
  0x9a, 0x73, 0xa0, 0x3b, 0xdf, 0xbc, 0xa1, 0x3c, 0x41, 0xe0, 0x40, 0xbe,
  0xe9, 0x7e, 0x2e, 0x3d, 0x21, 0x0f, 0x0e, 0x3d, 0x85, 0x25, 0x45, 0x3e,
  0xe2, 0x74, 0xa3, 0xbd, 0xdc, 0x55, 0x1a, 0xbe, 0x3b, 0x43, 0x85, 0x3d,
  0xb8, 0x2c, 0x20, 0xbe, 0x8e, 0x84, 0x87, 0xbe, 0x40, 0xf9, 0xa7, 0xbd,
  0xb9, 0x0e, 0x40, 0xbe, 0x9b, 0x34, 0x91, 0xbe, 0x46, 0x15, 0x15, 0xbd,
  0xd4, 0x0c, 0xab, 0xbe, 0xce, 0x2b, 0xb8, 0xbd, 0x59, 0xbf, 0x50, 0xbe,
  0xbb, 0x04, 0x6d, 0x3a, 0x5f, 0xac, 0x27, 0x3e, 0xa2, 0x25, 0x23, 0x3e,
  0x30, 0x05, 0xd0, 0x3c, 0x43, 0x59, 0xb3, 0x3a, 0xb1, 0xd9, 0x1c, 0xbe,
  0xed, 0xf3, 0x04, 0x3e, 0xf4, 0x54, 0x8a, 0x3c, 0x36, 0xea, 0x61, 0xbe,
  0xb9, 0x89, 0x88, 0xbe, 0x08, 0x8f, 0x01, 0x3e, 0x47, 0x97, 0x09, 0x3d,
  0x80, 0x23, 0x8f, 0xbd, 0x49, 0x99, 0x2f, 0xbe, 0x4d, 0x2f, 0x44, 0x3e,
  0x8d, 0xa2, 0x94, 0x3d, 0xf8, 0x9d, 0x2e, 0x3d, 0xee, 0x7b, 0x0c, 0x3e,
  0xd6, 0x0b, 0xb7, 0xbd, 0x53, 0x34, 0x0e, 0xbe, 0xa3, 0xa1, 0xe6, 0x3d,
  0xcb, 0xa0, 0xc1, 0x3d, 0xe1, 0x2a, 0xf3, 0xbb, 0xbc, 0x3b, 0x8e, 0xbe,
  0x82, 0x9e, 0xc2, 0x3d, 0xc4, 0xdf, 0x62, 0x3e, 0x07, 0x9e, 0x3a, 0xbc,
  0xf4, 0xf6, 0xa3, 0xbd, 0xf6, 0xc6, 0x4b, 0x3d, 0xb7, 0x34, 0xf3, 0xbd,
  0x09, 0xd6, 0x42, 0xbc, 0x38, 0x8a, 0x35, 0xbe, 0x3e, 0x61, 0x6b, 0xbd,
  0x2a, 0x3c, 0x24, 0xbe, 0x8f, 0x84, 0xd7, 0xbd, 0x05, 0xa7, 0x86, 0x3b,
  0x08, 0x81, 0x99, 0xbe, 0x77, 0x2d, 0xe1, 0xbd, 0xe5, 0xd1, 0x1e, 0xbe,
  0x6f, 0xe7, 0xbe, 0x3d, 0xf2, 0xac, 0x0f, 0xbe, 0x0f, 0x20, 0xd7, 0x3c,
  0xec, 0x78, 0x3b, 0xbe, 0x1a, 0x99, 0x56, 0xbe, 0xd2, 0x76, 0x11, 0xbe,
  0x08, 0x32, 0xa3, 0xbc, 0x2b, 0xfa, 0x23, 0x3d, 0x00, 0xd3, 0xfb, 0xbd,
  0xd4, 0xe8, 0x39, 0x3e, 0x39, 0xc8, 0x69, 0xbc, 0x95, 0xb9, 0x44, 0xbe,
  0xc2, 0xfb, 0x1a, 0xbe, 0x80, 0x66, 0x7d, 0xbe, 0x1a, 0x23, 0x27, 0x3e,
  0x1e, 0x77, 0x28, 0x3e, 0x06, 0xe1, 0x03, 0xbd, 0x43, 0xc0, 0x30, 0xbe,
  0x59, 0x31, 0x1e, 0xbe, 0x6f, 0xb8, 0x1d, 0xbe, 0xd7, 0xd7, 0x82, 0xbe,
  0x1a, 0x85, 0x0c, 0x3d, 0xd6, 0x29, 0x0b, 0xbe, 0x86, 0x92, 0x91, 0xbd,
  0x07, 0x77, 0x2c, 0x3d, 0xb7, 0x01, 0xd5, 0xbd, 0x59, 0xbe, 0x67, 0xbe,
  0xf1, 0x3f, 0xef, 0xbd, 0x84, 0x6c, 0xe9, 0x3d, 0x6b, 0xb7, 0xbe, 0xbd,
  0xd1, 0x19, 0xf4, 0xbd, 0x6c, 0xeb, 0x80, 0x3c, 0xd2, 0x05, 0xf7, 0xbd,
  0x31, 0xd2, 0x2b, 0x3e, 0x43, 0x06, 0x5e, 0xbe, 0xc1, 0x0e, 0x86, 0xbd,
  0xbb, 0x05, 0x8d, 0xbe, 0x74, 0xde, 0x35, 0x3e, 0x39, 0xf4, 0x6f, 0xbe,
  0xa9, 0xdc, 0x75, 0xbe, 0xa5, 0xd8, 0x0a, 0xbe, 0xd6, 0x87, 0xdd, 0x3d,
  0xd2, 0xda, 0x9e, 0xbd, 0x94, 0x2c, 0x8e, 0xbd, 0x10, 0x94, 0x87, 0xbc,
  0xe4, 0xc6, 0x17, 0xbe, 0x49, 0x68, 0x4b, 0x3c, 0x53, 0x68, 0x2e, 0x3d,
  0x99, 0x7d, 0xcf, 0xbd, 0xc2, 0xe4, 0x1a, 0xbe, 0x29, 0xd5, 0x86, 0xbb,
  0xcd, 0x70, 0x4c, 0x3d, 0xe0, 0x54, 0xc9, 0xbd, 0xac, 0x2b, 0x94, 0xbd,
  0x12, 0x5e, 0x6d, 0xbe, 0x41, 0x94, 0x4a, 0xbd, 0x82, 0xf1, 0x7a, 0xbd,
  0xe7, 0xce, 0x9b, 0xbd, 0x6d, 0xe2, 0x0a, 0x3d, 0x93, 0x98, 0x7d, 0x3d,
  0xea, 0x1b, 0xa0, 0xbd, 0x3d, 0x31, 0x1e, 0x3b, 0xe7, 0x9e, 0xbb, 0xbd,
  0xe4, 0xe0, 0x96, 0x3c, 0x2c, 0x37, 0x5d, 0xbe, 0x2b, 0xe5, 0x94, 0xbd,
  0x68, 0x90, 0xc1, 0xbc, 0x07, 0x43, 0x19, 0x3d, 0x97, 0xd4, 0x4d, 0xbe,
  0xe4, 0x16, 0x69, 0x3b, 0x57, 0xd3, 0x38, 0xbe, 0x4a, 0xfe, 0xff, 0xff,
  0x10, 0x00, 0x00, 0x00, 0x05, 0x00, 0x00, 0x00, 0x14, 0x00, 0x00, 0x00,
  0x2c, 0x00, 0x00, 0x00, 0x02, 0x00, 0x00, 0x00, 0x10, 0x00, 0x00, 0x00,
  0x70, 0x00, 0x00, 0x00, 0x17, 0x00, 0x00, 0x00, 0x73, 0x65, 0x71, 0x75,
  0x65, 0x6e, 0x74, 0x69, 0x61, 0x6c, 0x2f, 0x64, 0x65, 0x6e, 0x73, 0x65,
  0x2f, 0x4d, 0x61, 0x74, 0x4d, 0x75, 0x6c, 0x00, 0x38, 0xfe, 0xff, 0xff,
  0x2e, 0xff, 0xff, 0xff, 0x04, 0x00, 0x00, 0x00, 0x08, 0x00, 0x00, 0x00,
  0xff, 0xff, 0xff, 0xff, 0x70, 0x00, 0x00, 0x00, 0x00, 0x00, 0x0e, 0x00,
  0x18, 0x00, 0x08, 0x00, 0x07, 0x00, 0x0c, 0x00, 0x10, 0x00, 0x14, 0x00,
  0x0e, 0x00, 0x00, 0x00, 0x00, 0x00, 0x00, 0x02, 0x10, 0x00, 0x00, 0x00,
  0x04, 0x00, 0x00, 0x00, 0x10, 0x00, 0x00, 0x00, 0x2c, 0x00, 0x00, 0x00,
  0x01, 0x00, 0x00, 0x00, 0x02, 0x00, 0x00, 0x00, 0x18, 0x00, 0x00, 0x00,
  0x73, 0x65, 0x71, 0x75, 0x65, 0x6e, 0x74, 0x69, 0x61, 0x6c, 0x2f, 0x66,
  0x6c, 0x61, 0x74, 0x74, 0x65, 0x6e, 0x2f, 0x43, 0x6f, 0x6e, 0x73, 0x74,
  0x00, 0x00, 0x00, 0x00, 0xa0, 0xfe, 0xff, 0xff, 0x96, 0xff, 0xff, 0xff,
  0x04, 0x00, 0x00, 0x00, 0x0c, 0x00, 0x00, 0x00, 0xe7, 0x0f, 0xba, 0xc0,
  0x39, 0xb0, 0x29, 0x3f, 0xc8, 0x4c, 0x4e, 0xbd, 0x0a, 0xff, 0xff, 0xff,
  0x10, 0x00, 0x00, 0x00, 0x03, 0x00, 0x00, 0x00, 0x10, 0x00, 0x00, 0x00,
  0x3c, 0x00, 0x00, 0x00, 0x01, 0x00, 0x00, 0x00, 0x03, 0x00, 0x00, 0x00,
  0x29, 0x00, 0x00, 0x00, 0x73, 0x65, 0x71, 0x75, 0x65, 0x6e, 0x74, 0x69,
  0x61, 0x6c, 0x2f, 0x64, 0x65, 0x6e, 0x73, 0x65, 0x5f, 0x31, 0x2f, 0x42,
  0x69, 0x61, 0x73, 0x41, 0x64, 0x64, 0x2f, 0x52, 0x65, 0x61, 0x64, 0x56,
  0x61, 0x72, 0x69, 0x61, 0x62, 0x6c, 0x65, 0x4f, 0x70, 0x00, 0x00, 0x00,
  0x60, 0xff, 0xff, 0xff, 0x00, 0x00, 0x06, 0x00, 0x08, 0x00, 0x04, 0x00,
  0x06, 0x00, 0x00, 0x00, 0x04, 0x00, 0x00, 0x00, 0x40, 0x00, 0x00, 0x00,
  0x74, 0xe2, 0xe4, 0x3f, 0x68, 0x02, 0x01, 0x40, 0x37, 0xa9, 0xe5, 0x3f,
  0xc5, 0x6e, 0xd2, 0x3f, 0xac, 0x2a, 0xe6, 0x3f, 0x9f, 0xc7, 0xe2, 0x3f,
  0xdf, 0x18, 0x08, 0xbf, 0xf9, 0xa6, 0xc3, 0xbf, 0x7d, 0x86, 0x91, 0x3f,
  0x78, 0x3b, 0xb1, 0xbe, 0xbd, 0x99, 0x01, 0x40, 0x74, 0xc3, 0xd9, 0xbd,
  0x9e, 0x14, 0x96, 0xbf, 0x2c, 0x4d, 0x2a, 0x40, 0x07, 0x46, 0x11, 0xbe,
  0x73, 0xf7, 0xf7, 0xbe, 0xae, 0xff, 0xff, 0xff, 0x10, 0x00, 0x00, 0x00,
  0x02, 0x00, 0x00, 0x00, 0x10, 0x00, 0x00, 0x00, 0x3c, 0x00, 0x00, 0x00,
  0x01, 0x00, 0x00, 0x00, 0x10, 0x00, 0x00, 0x00, 0x27, 0x00, 0x00, 0x00,
  0x73, 0x65, 0x71, 0x75, 0x65, 0x6e, 0x74, 0x69, 0x61, 0x6c, 0x2f, 0x64,
  0x65, 0x6e, 0x73, 0x65, 0x2f, 0x42, 0x69, 0x61, 0x73, 0x41, 0x64, 0x64,
  0x2f, 0x52, 0x65, 0x61, 0x64, 0x56, 0x61, 0x72, 0x69, 0x61, 0x62, 0x6c,
  0x65, 0x4f, 0x70, 0x00, 0x04, 0x00, 0x06, 0x00, 0x04, 0x00, 0x00, 0x00,
  0x00, 0x00, 0x0e, 0x00, 0x14, 0x00, 0x04, 0x00, 0x00, 0x00, 0x08, 0x00,
  0x0c, 0x00, 0x10, 0x00, 0x0e, 0x00, 0x00, 0x00, 0x10, 0x00, 0x00, 0x00,
  0x01, 0x00, 0x00, 0x00, 0x1c, 0x00, 0x00, 0x00, 0x2c, 0x00, 0x00, 0x00,
  0x04, 0x00, 0x00, 0x00, 0x01, 0x00, 0x00, 0x00, 0x40, 0x00, 0x00, 0x00,
  0x03, 0x00, 0x00, 0x00, 0x01, 0x00, 0x00, 0x00, 0x0c, 0x00, 0x00, 0x00,
  0x63, 0x6f, 0x6e, 0x76, 0x32, 0x64, 0x5f, 0x69, 0x6e, 0x70, 0x75, 0x74,
  0x00, 0x00, 0x00, 0x00, 0xfc, 0xff, 0xff, 0xff, 0x04, 0x00, 0x04, 0x00,
  0x04, 0x00, 0x00, 0x00
};


unsigned int model_tflite_len = 12316 ;// Fill the int in `src/model.cc` here